{
  "</s>": 0,
  "<unk>": 1,
  "\u2581sa": 2,
  ",": 3,
  ".": 4,
  "\u2581nga": 5,
  "\u2581the": 6,
  "\u2581ang": 7,
  "\u2581mga": 8,
  "\u2581ug": 9,
  "\u2581-": 10,
  "\u2581of": 11,
  "\u2581to": 12,
  "\u2581and": 13,
  "\u2581\u201d": 14,
  "\u2581\u201c": 15,
  "\u2581a": 16,
  "\u2581in": 17,
  "\u2581ka": 18,
  "?": 19,
  "s": 20,
  "ng": 21,
  "\u2581that": 22,
  ":": 23,
  "g": 24,
  "\u2581Ang": 25,
  "\u2581\u2014": 26,
  "\u2581is": 27,
  "\u2581usa": 28,
  "\u2581ni": 29,
  "\u2581iyang": 30,
  "\u2581for": 31,
  "\u2019": 32,
  "\u2581on": 33,
  "\u2581I": 34,
  "\u2581dili": 35,
  "\u2581with": 36,
  "\u2581be": 37,
  "\u2581si": 38,
  "\u2581was": 39,
  "\u2581pag": 40,
  "\u2581you": 41,
  "\u2581his": 42,
  "\u2581Jehova": 43,
  ";": 44,
  "\u2581The": 45,
  "\u2581as": 46,
  "\u2581not": 47,
  "\u2581Sa": 48,
  "\u2581are": 49,
  "\u2581it": 50,
  "\u2581God": 51,
  "\u2581have": 52,
  "\u2581Diyos": 53,
  "\u2581Jesus": 54,
  "\u2581ilang": 55,
  "\u2581Jehovah": 56,
  "\u2581he": 57,
  "\u2581siya": 58,
  "\u2581na": 59,
  "\u2581": 60,
  "\u2581we": 61,
  "\u2581will": 62,
  "\u2581pa": 63,
  "\u2581an": 64,
  "\u2581from": 65,
  "\u2581by": 66,
  "\u2581diha": 67,
  "\u2581tawo": 68,
  "\u2581may": 69,
  "\u2581their": 70,
  "\u2581they": 71,
  "\u2581nag": 72,
  "\u2581[": 73,
  "\u2581kon": 74,
  "!": 75,
  "\u2581akong": 76,
  "\u2581o": 77,
  "\u2581\u2019": 78,
  "\u2581kini": 79,
  "\u2581imong": 80,
  "\u2581or": 81,
  "\u2581this": 82,
  "\u2581(": 83,
  "\u2581sila": 84,
  "\u2581who": 85,
  "\u2581kang": 86,
  "\u2581wala": 87,
  "\u2581niini": 88,
  "\u2581can": 89,
  "\u2581bahin": 90,
  "\u2581atong": 91,
  "\u2581all": 92,
  "\u2581were": 93,
  "\u2581ako": 94,
  "\u2581at": 95,
  "\u2581your": 96,
  "\u2581them": 97,
  "\u2581one": 98,
  "\u2581uban": 99,
  "y": 100,
  "\u2581our": 101,
  "\u2581aron": 102,
  "\u2581gikan": 103,
  "\u2581mao": 104,
  "\u2581Bible": 105,
  "\u2581kay": 106,
  "\u2581\u2018": 107,
  "\u2581had": 108,
  "\u2581usab": 109,
  "\u2581maoy": 110,
  "ing": 111,
  "\u2581alang": 112,
  "\u2581Bibliya": 113,
  "\u2581my": 114,
  "a": 115,
  "\u2581him": 116,
  "\u2581ngadto": 117,
  "\u2581us": 118,
  "\u2581paagi": 119,
  "]": 120,
  "\u2581Ug": 121,
  "\u2581man": 122,
  "\u2581do": 123,
  "\u2581what": 124,
  "\u2581people": 125,
  "\u2581has": 126,
  "\u2581In": 127,
  "-": 128,
  ")": 129,
  "\u2581Apan": 130,
  "\u2581ingon": 131,
  "\u2581kaniya": 132,
  "\u2581when": 133,
  "\u2581niana": 134,
  "\u2581What": 135,
  "\u2581but": 136,
  "\u2581about": 137,
  "\u2581me": 138,
  "\u2581walay": 139,
  "\u2581Unsa": 140,
  "\u2581maong": 141,
  "\u2581ba": 142,
  "\u2581ko": 143,
  "\u2581tungod": 144,
  "\u2581would": 145,
  "\u2581dihang": 146,
  "\u2581anak": 147,
  "\u2581time": 148,
  "\u2581kita": 149,
  "\u2581panahon": 150,
  "\u2581bisan": 151,
  "\u2581unsang": 152,
  "\u2581adlaw": 153,
  "\u2581gayod": 154,
  "\u2581niining": 155,
  "\u2581tanang": 156,
  "\u2581kinabuhi": 157,
  "\u25811": 158,
  "\u2581so": 159,
  "\u2581Si": 160,
  "\u2581more": 161,
  "\u2581out": 162,
  "\u2581butang": 163,
  "\u2581kanila": 164,
  "\u2581life": 165,
  "an": 166,
  "\u2581A": 167,
  "\u2581miingon": 168,
  "\u2581among": 169,
  "\u2581yuta": 170,
  "\u2581also": 171,
  "\u2581up": 172,
  "\u2581kaayo": 173,
  "\u2581some": 174,
  "\u2581which": 175,
  "\u2581said": 176,
  "\u2581her": 177,
  "\u2581pinaagi": 178,
  "\u2581did": 179,
  "\u2581mag": 180,
  "\u2581He": 181,
  "\u2581been": 182,
  "\u2581It": 183,
  "t": 184,
  "\u2581karon": 185,
  "\u2581Kini": 186,
  "\u2581apan": 187,
  "\u2581mahimong": 188,
  "\u2581there": 189,
  "\u2581How": 190,
  "\u2581those": 191,
  "\u2581And": 192,
  "\u2581many": 193,
  "\u2581ingong": 194,
  "\u2581niya": 195,
  "\u2581ong": 196,
  "\u2581daghang": 197,
  "\u2581no": 198,
  "\u2581such": 199,
  "\u2581tuig": 200,
  "\u2581into": 201,
  "\u2581maayong": 202,
  "\u2581mas": 203,
  "\u2581sama": 204,
  "\u2581tanan": 205,
  "\u2581But": 206,
  "\u2581Kon": 207,
  "\u2581Israel": 208,
  "\u2581panid": 209,
  "\u2581than": 210,
  "\u2581Saksi": 211,
  "on": 212,
  "\u2581other": 213,
  "\u2581pipila": 214,
  "\u2581even": 215,
  "\u2581if": 216,
  "\u2581lamang": 217,
  "\u2581these": 218,
  "\u2581Busa": 219,
  "\u2581way": 220,
  "ed": 221,
  "\u2581kalibotan": 222,
  "\u2581mo": 223,
  "\u2581world": 224,
  "\u2581niadtong": 225,
  "\u2581how": 226,
  "\u2581kanako": 227,
  "\u2581page": 228,
  "\u2581kanato": 229,
  "\u2581Witnesses": 230,
  "\u2581years": 231,
  "\u2581day": 232,
  "\u2581Bisan": 233,
  "\u2581shall": 234,
  "\u2581children": 235,
  "\u2581good": 236,
  "\u201c": 237,
  "\u2581For": 238,
  "\u2581kaugalingon": 239,
  "\u2581things": 240,
  "\u2581babaye": 241,
  "\u2581help": 242,
  "\u2581aw": 243,
  "\u2581work": 244,
  "\u2581balay": 245,
  "\u2581ubang": 246,
  "\u2581should": 247,
  "\u2581They": 248,
  "\u2581This": 249,
  "\u2581make": 250,
  "\u2581kanimo": 251,
  "\u2581human": 252,
  "\u2581kana": 253,
  "\u2581We": 254,
  "\u2581/": 255,
  "\u2581its": 256,
  "\u2581she": 257,
  "\u2581could": 258,
  "\u2581kining": 259,
  "\u2581lang": 260,
  "\u2581made": 261,
  "\u2581When": 262,
  "\u2581over": 263,
  "\u2581earth": 264,
  "\u2581says": 265,
  "\u2581David": 266,
  "\u2581kinahanglang": 267,
  "\u2581because": 268,
  "\u2581bag": 269,
  "d": 270,
  "\u2581pulong": 271,
  "\u2581does": 272,
  "\u2581unsay": 273,
  "\u2581Usa": 274,
  "\u2581alagad": 275,
  "\u2581Kristohanon": 276,
  "\u2581nimo": 277,
  "\u2581love": 278,
  "ly": 279,
  "\u2581adunay": 280,
  "\u2581first": 281,
  "\u2581only": 282,
  "\u2581Paul": 283,
  "\u2581mi": 284,
  "\u2581kamo": 285,
  "...": 286,
  "\u2581tibuok": 287,
  "\u2581like": 288,
  "\u2581nato": 289,
  "\u2581katawhan": 290,
  "\u2581pamilya": 291,
  "\u2581ikaw": 292,
  "\u25815": 293,
  "\u2581Kingdom": 294,
  "\u2581inyong": 295,
  "\u2581Dili": 296,
  "\u2581duha": 297,
  "\u2581Christian": 298,
  "\u2581Pablo": 299,
  "\u2581As": 300,
  "\u2581os": 301,
  "\u2581before": 302,
  "\u2581lalaki": 303,
  "\u2581gi": 304,
  "\u2581then": 305,
  "\u2581being": 306,
  "\u2581come": 307,
  "\u2581kami": 308,
  "\u2581If": 309,
  "\u2581C": 310,
  "\u2581dapit": 311,
  "\u2581matag": 312,
  "\u2581bata": 313,
  "\u25812": 314,
  "\u2581nila": 315,
  "\u2581see": 316,
  "\u2581Christ": 317,
  "\u2581Siya": 318,
  "\u2581family": 319,
  "ang": 320,
  "\u2581dakong": 321,
  "\u2581kinsa": 322,
  "\u2581unang": 323,
  "\u2581ginikanan": 324,
  "\u2581Why": 325,
  "\u2581others": 326,
  "\u2581pagtuo": 327,
  "\u2581You": 328,
  "\u2581nasod": 329,
  "\u2581two": 330,
  "\u2581kahimtang": 331,
  "\u2581didto": 332,
  "\u2581Picture": 333,
  "\u2581after": 334,
  "\u2581Mga": 335,
  "\u2581know": 336,
  "\u2581maayo": 337,
  "\u2581now": 338,
  "\u2581ma": 339,
  "\u2581men": 340,
  "Ang": 341,
  "\u2581well": 342,
  "\u2581kasingkasing": 343,
  "\u2581daghan": 344,
  "\u2581igsoon": 345,
  "\u2581Kristo": 346,
  "\u2581take": 347,
  "\u2581nako": 348,
  "\u2581laing": 349,
  "\u2581need": 350,
  "\u2581unsa": 351,
  "\u2581tingali": 352,
  "\u2581labing": 353,
  "\u2581just": 354,
  "\u2581any": 355,
  "\u2581Christians": 356,
  "the": 357,
  "\u2581must": 358,
  "\u2581sulod": 359,
  "\u2581Gi": 360,
  "\u2581own": 361,
  "\u2581new": 362,
  "\u2581gugma": 363,
  "\u2581bug": 364,
  "\u2581diin": 365,
  "\u2581example": 366,
  "\u2581faith": 367,
  "\u2581batan": 368,
  "\u2581much": 369,
  "\u2581kongregasyon": 370,
  "\u2581heart": 371,
  "\u2581tinuod": 372,
  "\u2581through": 373,
  "\u2581most": 374,
  "\u2581year": 375,
  "\u2581spirit": 376,
  "\u2581b": 377,
  "\u2581very": 378,
  "\u2581Nganong": 379,
  "\u2581Jerusalem": 380,
  "\u2581ngalan": 381,
  "\u2581become": 382,
  "\u2581came": 383,
  "\u2581So": 384,
  "\u2581words": 385,
  "I": 386,
  "\u2581ayo": 387,
  "\u2581against": 388,
  "\u2581away": 389,
  "\u2581espirituwal": 390,
  "\u25813:": 391,
  "\u2581another": 392,
  "\u2581death": 393,
  "\u2581pagtuon": 394,
  "\u2581kamatuoran": 395,
  "\u2581name": 396,
  "\u2581samtang": 397,
  "\u2581parents": 398,
  "\u2581\"": 399,
  "\u2581where": 400,
  "\u2581espiritu": 401,
  "\u2581give": 402,
  "\u2581found": 403,
  "S": 404,
  "\u2581kaayong": 405,
  "\u2581batok": 406,
  "\u2581kataposan": 407,
  "\u2581say": 408,
  "\u2581Pag": 409,
  "\u2581New": 410,
  "\u2581hari": 411,
  "\u2581makita": 412,
  "\u2581Tungod": 413,
  "\u258115": 414,
  "\u2581ra": 415,
  "\u2581go": 416,
  "\u2581great": 417,
  "\u2581nianang": 418,
  "\u2581hunahuna": 419,
  "\u2581congregation": 420,
  "\u2581hangtod": 421,
  "E": 422,
  "\u2581true": 423,
  "\u2581Hulagway": 424,
  "\u25812:": 425,
  "\u2581times": 426,
  "\u2581dunay": 427,
  "\u2581maka": 428,
  "\u2581Gingharian": 429,
  "\u2581One": 430,
  "\u2581down": 431,
  "\u2581tubig": 432,
  "\u2581anaa": 433,
  "\u2581house": 434,
  "e": 435,
  "\u2581every": 436,
  "\u2581spiritual": 437,
  "\u2581home": 438,
  "\u2581ampo": 439,
  "\u2581study": 440,
  "\u2581Kristohanong": 441,
  "\u2581Kay": 442,
  "\u2581John": 443,
  "\u2581unto": 444,
  "\u2581gusto": 445,
  "\u2581upon": 446,
  "\u2581pagkaon": 447,
  "\u2581might": 448,
  "\u2581kaninyo": 449,
  "\u2581young": 450,
  "\u2581each": 451,
  "\u2581ones": 452,
  "\u2581called": 453,
  "\u2581sumala": 454,
  "\u2581pang": 455,
  "\u2581put": 456,
  "\u2581ulahi": 457,
  "\u2581That": 458,
  "\u2581long": 459,
  "i": 460,
  "\u25814:": 461,
  "\u2581use": 462,
  "\u2581person": 463,
  "\u2581kamatayon": 464,
  "\u2581To": 465,
  "\u2581book": 466,
  "\u2581part": 467,
  "\u2581buluhaton": 468,
  "\u2581find": 469,
  "\u2581place": 470,
  "'": 471,
  "\u2581used": 472,
  "\u2581hinungdanon": 473,
  "\u2581angay": 474,
  "n": 475,
  "\u2581Some": 476,
  "\u258120": 477,
  "\u2581days": 478,
  "\u2581same": 479,
  "\u25811:": 480,
  "\u2581amahan": 481,
  "\u2581today": 482,
  "er": 483,
  "\u2581nang": 484,
  "\u2581Dios": 485,
  "sa": 486,
  "\u2581personal": 487,
  "\u2581often": 488,
  "\u2581Wala": 489,
  "\u2581get": 490,
  "\u2581feel": 491,
  "\u2581However": 492,
  "\u2581ibabaw": 493,
  "\u2581B": 494,
  "\u2581*": 495,
  "\u2581asawa": 496,
  "\u2581son": 497,
  "\u2581nahimong": 498,
  "\u2581Na": 499,
  "\u2581mahimo": 500,
  "\u2581too": 501,
  "\u2581am": 502,
  "\u2581Then": 503,
  "\u2581hand": 504,
  "\u2581pagka": 505,
  "\u2581gihimo": 506,
  "\u2581truth": 507,
  "tungod": 508,
  "\u2581kondili": 509,
  "al": 510,
  "\u2581king": 511,
  "\u2581tawong": 512,
  "\u2581sakit": 513,
  "\u2581Sila": 514,
  "\u2581under": 515,
  "\u2581himself": 516,
  "\u2581three": 517,
  "o": 518,
  "\u2581let": 519,
  "\u2581back": 520,
  "\u2581dalan": 521,
  "\u2581old": 522,
  "\u25816:": 523,
  "\u2581matang": 524,
  "\u2581dako": 525,
  "\u2581lawas": 526,
  "\u2581though": 527,
  "\u2581keep": 528,
  "\u2581never": 529,
  "\u2581kalipay": 530,
  "\u2581buot": 531,
  "\u2581water": 532,
  "\u2022": 533,
  "\u2581end": 534,
  "\u2581una": 535,
  "P": 536,
  "\u2581right": 537,
  "\u2581kamot": 538,
  "\u2581At": 539,
  "\u2581land": 540,
  "\u2581dayon": 541,
  "\u2581buhat": 542,
  "\u2581word": 543,
  "\u2581trabaho": 544,
  "th": 545,
  "\u258114": 546,
  "\u2581Do": 547,
  "\u2581\u25a1": 548,
  "\u2581dugo": 549,
  "\u2581maga": 550,
  "\u2581paghimo": 551,
  "\u2581Pananglitan": 552,
  "\u2581O": 553,
  "\u2581became": 554,
  "\u2581dugang": 555,
  "\u2581naga": 556,
  "\u2581Juan": 557,
  "\u2581father": 558,
  "\u2581There": 559,
  "\u2581Daghan": 560,
  "\u2581still": 561,
  "\u2581brothers": 562,
  "\u2581makatabang": 563,
  "\u2581read": 564,
  "\u2581After": 565,
  "\u2581means": 566,
  "\u2581live": 567,
  "\u2581Is": 568,
  "\u2581without": 569,
  "\u2581adlawa": 570,
  "\u2581Human": 571,
  "\u2581set": 572,
  "\u2581why": 573,
  "\u2581Yahweh": 574,
  "\u2581langit": 575,
  "\u258112": 576,
  "\u25818": 577,
  "\u2581namo": 578,
  "\u2581during": 579,
  "\u25811,": 580,
  "m": 581,
  "\u2581higala": 582,
  "\u2581article": 583,
  "),": 584,
  "\u2581atubangan": 585,
  "\u2581Word": 586,
  "\u2581went": 587,
  "\u2581kadaghanan": 588,
  "\u2581apostol": 589,
  "\u2581sala": 590,
  "\u2581wrote": 591,
  "\u2581themselves": 592,
  "\u2581given": 593,
  "\u2581wife": 594,
  "\u2581Ako": 595,
  "\u2581mahi": 596,
  "\u2581LORD": 597,
  "\u2581inahan": 598,
  "\u2581Peter": 599,
  "\u2581tulo": 600,
  "\u2581began": 601,
  "\u2581Abraham": 602,
  "\u2581city": 603,
  "\u2581Line": 604,
  "\u2581want": 605,
  "\u2581siyudad": 606,
  "\u2581told": 607,
  "\u2581artikulo": 608,
  "\u2581Pulong": 609,
  "\u2581child": 610,
  "\u2581pagkatinuod": 611,
  "\u2581blood": 612,
  "\u2581hinungdan": 613,
  "\u2581awa": 614,
  "\u2581took": 615,
  "\u2581kadtong": 616,
  "A": 617,
  "\u2581SA": 618,
  "\u2581World": 619,
  "\u2581gihapon": 620,
  "r": 621,
  "\u2581while": 622,
  "\u2581labaw": 623,
  "\u2581apostle": 624,
  "\u258110": 625,
  "\u2581Karon": 626,
  "\u2581kapin": 627,
  "\u2581balita": 628,
  "\u2581ninyo": 629,
  "\u2581siglo": 630,
  "\u2581between": 631,
  "\u2581learn": 632,
  "\u2581important": 633,
  "\u2581nganong": 634,
  "\u2581gikinahanglan": 635,
  "\u2581gigamit": 636,
  "\u2581show": 637,
  "\u2581century": 638,
  "\u2581gave": 639,
  "\u2581later": 640,
  "\u2581however": 641,
  "\u2581kaugalingong": 642,
  "\u2581K": 643,
  "\u2581relihiyon": 644,
  "\u2581M": 645,
  "\u2581Father": 646,
  "\u2581saying": 647,
  "\u2581both": 648,
  "\u2581Nag": 649,
  "The": 650,
  "\u2581mother": 651,
  "\u2581tabang": 652,
  "\u2581pagbati": 653,
  "l": 654,
  "\u2581living": 655,
  "\u2581paglaom": 656,
  "\u2581kasagaran": 657,
  "\u2581panon": 658,
  "\u2581course": 659,
  "\u2581taliwala": 660,
  "\u2581kong": 661,
  "\u2581pinulongan": 662,
  "\u2581She": 663,
  "\u2581mata": 664,
  "\u2581nakita": 665,
  "\u2581My": 666,
  "\u2581\u201d?": 667,
  "\u2581T": 668,
  "\u2581On": 669,
  "\u2581able": 670,
  "\u2581gitawag": 671,
  "\u2581S": 672,
  "\u2581basahon": 673,
  "\u2581By": 674,
  "\u2581Pedro": 675,
  "\u2581off": 676,
  "\u2581With": 677,
  "\u25813": 678,
  "\u2581peace": 679,
  "\u2581unya": 680,
  "\u2581hope": 681,
  ".\"": 682,
  "\u2581number": 683,
  "\u2581Alang": 684,
  "\u2581lalake": 685,
  "\u2581whom": 686,
  "\u2581dugay": 687,
  "\u2581Job": 688,
  "\u2581bulan": 689,
  "\u2581little": 690,
  "\u2581bana": 691,
  "\u258121": 692,
  "\u2581iya": 693,
  "\u2581angayng": 694,
  "\u2581sukad": 695,
  "\u258111": 696,
  "\u258118": 697,
  "\u2581mind": 698,
  "\u2581antos": 699,
  "\u2581kahibalo": 700,
  "\u258119": 701,
  "\u2581naghatag": 702,
  "\u2581news": 703,
  "\u2581mismo": 704,
  "\u2581s": 705,
  "\u2581view": 706,
  "\u2581kanunay": 707,
  "\u2581food": 708,
  "\u2581Satanas": 709,
  "\u2581pagsangyaw": 710,
  "\u2581P": 711,
  "\u2581himoon": 712,
  "\u2581knowledge": 713,
  "\u2581Satan": 714,
  "\u2581katuyoan": 715,
  "\u2581Many": 716,
  "re": 717,
  "\u2581worship": 718,
  "\u2581power": 719,
  "C": 720,
  "\u2581again": 721,
  "\u2581nahibalo": 722,
  "\u2581problema": 723,
  "\u2581Footnote": 724,
  "\u258122": 725,
  "\u2581nahitabo": 726,
  "\u2581Ingon": 727,
  "\u258130": 728,
  "\u2581gubat": 729,
  "\u2581anyos": 730,
  "\u2581fact": 731,
  "\u2581together": 732,
  "\u2581mahitabo": 733,
  "\u2581few": 734,
  "\u2581holy": 735,
  "\u2581i": 736,
  "\u2581natong": 737,
  "\u2581misulat": 738,
  "\u2581buhaton": 739,
  "\u2581pagbuhat": 740,
  "\u2581lagmit": 741,
  "\u2581Matthew": 742,
  "\u2581Dugang": 743,
  "\u2581gamay": 744,
  "\u2581daotan": 745,
  "\u2581high": 746,
  "\u2581gawas": 747,
  "\u2581women": 748,
  "\u2581higayon": 749,
  "in": 750,
  "\u2581dinhi": 751,
  "\u2581balaod": 752,
  "\u2581always": 753,
  "\u2581kusog": 754,
  "\u2581tinun": 755,
  "\u2581bring": 756,
  "\u2581Salmo": 757,
  "\u2581woman": 758,
  "\u2581Ma": 759,
  "\u2581Iyang": 760,
  "\u2581Our": 761,
  "\u2581Amahan": 762,
  "\u2581gihatag": 763,
  "\u2581doing": 764,
  "\u2581matuod": 765,
  "\u2581Lord": 766,
  "\u2581paggamit": 767,
  "\u2581Jesu": 768,
  "\u2581These": 769,
  "\u2581Sumal": 770,
  "\u2581kanamo": 771,
  "....": 772,
  "\u2581Yet": 773,
  "\u2581asked": 774,
  "\u2581tambag": 775,
  "\u2581anan": 776,
  "\u2581left": 777,
  "\u2581making": 778,
  "\u2581Mateo": 779,
  "\u2581gani": 780,
  "\u2581His": 781,
  "\u2581done": 782,
  "\u2581having": 783,
  "\u2581tan": 784,
  "\u2581gahom": 785,
  "\u258125": 786,
  "\u2581niyang": 787,
  "\u2581giingon": 788,
  "\u2581known": 789,
  "\u2581nagpakita": 790,
  "\u2581halad": 791,
  "\u2581brought": 792,
  "\u2581From": 793,
  "\u2581service": 794,
  "\u2581Even": 795,
  "\u2581full": 796,
  "\u2581Moises": 797,
  "\u2581think": 798,
  "\u25819": 799,
  "\u2581Psalm": 800,
  "\u2581Ginoo": 801,
  "\u2581Moses": 802,
  "\u2581suliran": 803,
  "\u25816": 804,
  "\u2581pagsimba": 805,
  "\u2581toward": 806,
  "\u2581result": 807,
  "\u2581Solomon": 808,
  "\u2581faithful": 809,
  "\u2581ilabina": 810,
  "\u2581Aron": 811,
  "es": 812,
  "\u2581ways": 813,
  "\u2581dagko": 814,
  "\u2581really": 815,
  "\u2581kinahanglan": 816,
  "\u2581problems": 817,
  "\u2581serve": 818,
  "\u2581tuod": 819,
  "\u2581since": 820,
  "\u2581Unya": 821,
  "\u2581Samtang": 822,
  "\u2581panginahanglan": 823,
  "\u25817": 824,
  "\u2581nor": 825,
  "\u2581pangutana": 826,
  "\u2581eyes": 827,
  "\u2581balaang": 828,
  "\u2581thou": 829,
  "\u2581order": 830,
  "\u2581ministry": 831,
  "\u2581tigom": 832,
  "\u2581body": 833,
  "\u25818,": 834,
  "\u2581something": 835,
  "\u25aa": 836,
  "\u2581kanhi": 837,
  "\u258116": 838,
  "\u2581look": 839,
  "\u2581ika": 840,
  "\u2581No": 841,
  "\u2581unta": 842,
  "\u2581ever": 843,
  "\u2581Kasulatan": 844,
  "\u2581tin": 845,
  "\u2581preaching": 846,
  "\u2581face": 847,
  "\u2581until": 848,
  "\u2581religious": 849,
  "\u2581Anak": 850,
  "\u25814": 851,
  "\u2581sin": 852,
  "\u2581umaabot": 853,
  "\u2581percent": 854,
  "\u2581mamatay": 855,
  "\u2581law": 856,
  "\u2581Oo": 857,
  "\u2581hard": 858,
  "\u2581matarong": 859,
  "\u2581sayop": 860,
  "\u2581May": 861,
  "\u2581gidaghanon": 862,
  "k": 863,
  "\u2581Pinaagi": 864,
  "\u2581buhi": 865,
  "\u2581reason": 866,
  "\u2581better": 867,
  "\u2581school": 868,
  "\u2581around": 869,
  "\u2581last": 870,
  "\u2581Hari": 871,
  "\u2581impormasyon": 872,
  "\u2581pay": 873,
  "\u2581daw": 874,
  "\u258112:": 875,
  "\u2581naka": 876,
  "\u2581katuigan": 877,
  "\u2581maalamon": 878,
  "\u2581grabe": 879,
  "matod": 880,
  "\u2581U": 881,
  "\u2581disciples": 882,
  "\u2581King": 883,
  "\u2581karaang": 884,
  "\u2581humans": 885,
  "\u2581care": 886,
  "\u2581hingpit": 887,
  "\u2581far": 888,
  "\u2581membro": 889,
  "\u2581onan": 890,
  "\u2581mankind": 891,
  "\u2581taga": 892,
  "\u2581Genesis": 893,
  "\u2581husband": 894,
  "\u2581saw": 895,
  "\u2581relasyon": 896,
  "\u2581busa": 897,
  "\u2581system": 898,
  "\u2581sistema": 899,
  "\u2581different": 900,
  "\u2581cause": 901,
  "\u2581Yes": 902,
  "\u2581samang": 903,
  "\u2581Ka": 904,
  "\u2581Thus": 905,
  "\u2581fear": 906,
  "\u2581madugay": 907,
  "\u2581regular": 908,
  "\u2581servants": 909,
  "\u2581panguna": 910,
  "\u2581lives": 911,
  "\u2581United": 912,
  "\u2581All": 913,
  "\u2581yet": 914,
  "\u2581kaayohan": 915,
  "\u2581thy": 916,
  "\u2581nagtuo": 917,
  "\u2581Now": 918,
  "\u2581kahoy": 919,
  "\u2581free": 920,
  "\u2581Diha": 921,
  "\u2581nations": 922,
  "\u258113": 923,
  "\u2581according": 924,
  "\u2581brother": 925,
  "\u2581future": 926,
  "\u2581tig": 927,
  "\u2581small": 928,
  "\u2581loving": 929,
  "\u2581sons": 930,
  "\u2581ubos": 931,
  "te": 932,
  "\u2581Daniel": 933,
  "\u25814.": 934,
  "\u2581thought": 935,
  "\u2581hulagway": 936,
  "ma": 937,
  "\u2581kadto": 938,
  "\u2581light": 939,
  "\u2581kalihokan": 940,
  "\u2581Roma": 941,
  "\u2581four": 942,
  "\u2581resulta": 943,
  "\u2581heaven": 944,
  "\u2581pagtagad": 945,
  "\u2581Scriptures": 946,
  "\u2581Son": 947,
  "B": 948,
  "\u2581susama": 949,
  "\u2581atiman": 950,
  "\u2581kataposang": 951,
  "\u2581purpose": 952,
  "\u2581experience": 953,
  "\u2581cannot": 954,
  "\u2581gihisgotan": 955,
  "\u2581marriage": 956,
  "\u2581age": 957,
  "\u258111:": 958,
  "\u2581someone": 959,
  "ha": 960,
  "\u2581believe": 961,
  "\u2581consider": 962,
  "\u2581joy": 963,
  "\u258110:": 964,
  "\u2581sent": 965,
  "\u2581kalag": 966,
  "\u2581Your": 967,
  "ong": 968,
  "\u2581Mi": 969,
  "\u2581Walay": 970,
  "c": 971,
  "\u258117": 972,
  "\u2581upat": 973,
  "\u2581awon": 974,
  "\u2581needed": 975,
  "\u2581money": 976,
  "\u2581questions": 977,
  "\u2581war": 978,
  "\u2581kauban": 979,
  "\u2581friends": 980,
  "\u2581possible": 981,
  "\u2581best": 982,
  "\u2581felt": 983,
  "\u2581learned": 984,
  "\u2581grupo": 985,
  "\u2581Let": 986,
  "\u2581health": 987,
  "\u2581following": 988,
  "\u2581helped": 989,
  "\u2581Hall": 990,
  "\u2581Mao": 991,
  "\u2581kaminyoon": 992,
  "\u2581katakos": 993,
  "\u2581pagtabang": 994,
  "\u2581tawhanon": 995,
  "\u2581panahona": 996,
  "\u2581early": 997,
  "\u2581gibati": 998,
  "\u2581along": 999,
  "mga": 1000,
  "\u2581prinsipyo": 1001,
  "\u2581daotang": 1002,
  "\u2581E": 1003,
  "\u2581andam": 1004,
  "\u2581gipakita": 1005,
  "\u2581next": 1006,
  "\u2581Dayon": 1007,
  "\u2581namatay": 1008,
  "p": 1009,
  "\u2581matter": 1010,
  "\u2581fellow": 1011,
  "\u2581heard": 1012,
  "\u2581speak": 1013,
  "\u2581thus": 1014,
  "\u2581paghatag": 1015,
  "\u25815.": 1016,
  "\u2581yourself": 1017,
  "\u2581Isaias": 1018,
  "\u2581naghimo": 1019,
  "\u2581thing": 1020,
  "\u258124": 1021,
  "\u25817:": 1022,
  "\u2581wisdom": 1023,
  "\u2581Isaiah": 1024,
  "b": 1025,
  "\u2581ANG": 1026,
  "\u2581Hudiyo": 1027,
  "\u2581tubag": 1028,
  "\u258113:": 1029,
  "\u2581nalangkit": 1030,
  "\u258122,": 1031,
  "\u2581usag": 1032,
  "\u2581duol": 1033,
  "\u2581tali": 1034,
  "\u2581certain": 1035,
  "\u2581prayer": 1036,
  "\u2581therefore": 1037,
  "\u2581form": 1038,
  "\u2581Corinto": 1039,
  "\u2581moral": 1040,
  "\u2581dead": 1041,
  "\u2581night": 1042,
  "\u2581kaalam": 1043,
  "\u2581Because": 1044,
  "\u2581sagad": 1045,
  "\u2581ministeryo": 1046,
  "\u2581oras": 1047,
  "\u2581wicked": 1048,
  "\u2581salapi": 1049,
  "\u2581going": 1050,
  "\u2581Gikan": 1051,
  "to": 1052,
  "\u2581self": 1053,
  "\u258123": 1054,
  "\u2581taken": 1055,
  "\u2581Kadto": 1056,
  "\u2581million": 1057,
  "\u2581Proverbs": 1058,
  "\u2581talagsaong": 1059,
  "\u2581ingnan": 1060,
  "\u2581Proverbio": 1061,
  "\u2581thee": 1062,
  "\u2581Kana": 1063,
  "\u2581Credit": 1064,
  "\u2581desisyon": 1065,
  "\u2581kanunayng": 1066,
  "\u2581nagpuyo": 1067,
  "\u2581katawohan": 1068,
  "\u2581pagsalig": 1069,
  "\u2581whole": 1070,
  "\u25812.": 1071,
  "\u2581mahigugmaong": 1072,
  "\u2581states": 1073,
  "han": 1074,
  "\u2581happy": 1075,
  "\u2581seen": 1076,
  "\u2581ancient": 1077,
  "redit": 1078,
  "\u2581especially": 1079,
  "\u2581Who": 1080,
  "\u2581present": 1081,
  "\u2581Can": 1082,
  "\u2581pagsabot": 1083,
  "\u258150": 1084,
  "\u2581answer": 1085,
  "\u2581meetings": 1086,
  "\u2581ta": 1087,
  "\u258140": 1088,
  "\u2581di": 1089,
  "\u2581diyutay": 1090,
  "halos": 1091,
  "\u2581language": 1092,
  "\u2581ulo": 1093,
  "\u2581gabii": 1094,
  "\u2581Although": 1095,
  "\u2581motabang": 1096,
  "\u25818.": 1097,
  "\u2581ye": 1098,
  "\u2581turn": 1099,
  "\u2581epekto": 1100,
  "\u2581close": 1101,
  "\u2581panig": 1102,
  "\u2581paningkamot": 1103,
  "\u2581Watchtower": 1104,
  "\u2581Mo": 1105,
  "\u2581dali": 1106,
  "\u2581understand": 1107,
  "\u2581information": 1108,
  "\u2581tukma": 1109,
  "\u2581Tan": 1110,
  "\u2581dagat": 1111,
  "\u2581fine": 1112,
  "\u2581Sama": 1113,
  "\u2581de": 1114,
  "\u2581sunod": 1115,
  "\u2581Jacob": 1116,
  "\u258110.": 1117,
  "na": 1118,
  "\u2581tingog": 1119,
  "\u2581nagpadayon": 1120,
  "\u2581York": 1121,
  "\u2581large": 1122,
  "\u2581soon": 1123,
  "\u2581elders": 1124,
  "\u2581religion": 1125,
  "\u2581received": 1126,
  "\u2581Of": 1127,
  "\u2581bad": 1128,
  "\u2581gingharian": 1129,
  "\u2581pila": 1130,
  "\u2581Saul": 1131,
  "\u2581tinguha": 1132,
  "\u2581righteous": 1133,
  "\u2581enjoy": 1134,
  "\u2581semana": 1135,
  "\u2581nagsugod": 1136,
  "\u2581Tin": 1137,
  "\u2581ask": 1138,
  "\u2581kaha": 1139,
  "\u2581bato": 1140,
  "\u2581continue": 1141,
  "\u2581gibuhat": 1142,
  "\u2581support": 1143,
  "\u2581ulipon": 1144,
  "\u2581sugo": 1145,
  "\u2581Tinuod": 1146,
  "\u2581counsel": 1147,
  "\u2581ilalom": 1148,
  "\u2581problem": 1149,
  "\u258115,": 1150,
  "\u2581including": 1151,
  "\u258114.": 1152,
  "\u2581kanang": 1153,
  "\u2581Since": 1154,
  "\u2581doktor": 1155,
  "\u2581country": 1156,
  "\u2581W": 1157,
  "\u2581died": 1158,
  "\u2581pagbasa": 1159,
  "\u2581silang": 1160,
  "\u2581Be": 1161,
  "\u2581feet": 1162,
  "\u2581relihiyosong": 1163,
  "\u258131": 1164,
  "\u2581edad": 1165,
  "\u2581ansiyano": 1166,
  "\u2581patay": 1167,
  "\u2581kahulogan": 1168,
  "\u2581members": 1169,
  "\u2581niadto": 1170,
  "\u2581situation": 1171,
  "\u2581pagtulon": 1172,
  "\u2581kausaban": 1173,
  "\u2581lainlaing": 1174,
  "ri": 1175,
  "\u2581bisag": 1176,
  "\u2581kabubut": 1177,
  "\u2581mahibalo": 1178,
  "\u2581mensahe": 1179,
  "\u2581control": 1180,
  "\u2581Oh": 1181,
  "\u2581Jews": 1182,
  "\u25817.": 1183,
  "\u2581panahong": 1184,
  "\u2581five": 1185,
  "\u2581teaching": 1186,
  "\u2581tell": 1187,
  "\u2581kagawasan": 1188,
  "\u2581kind": 1189,
  "\u2581porsiyento": 1190,
  "\u2581An": 1191,
  "\u2581moabot": 1192,
  "le": 1193,
  "\u2581Samuel": 1194,
  "\u2581bang": 1195,
  "\u2581reading": 1196,
  "\u2581nahimo": 1197,
  "\u2581lisod": 1198,
  "\u2581kada": 1199,
  "\u2581near": 1200,
  "\u2581point": 1201,
  "\u2581case": 1202,
  "\u2581share": 1203,
  "\u2581nagaingon": 1204,
  "\u2581mananap": 1205,
  "\u2581tinamdan": 1206,
  "\u2581Kinsa": 1207,
  "\u25813.": 1208,
  "\u2581Israelinhon": 1209,
  "\u2581naghisgot": 1210,
  "\u2581pananglitan": 1211,
  "\u2581Hinunoa": 1212,
  "\u2581States": 1213,
  "\u2581samag": 1214,
  "\u2581talk": 1215,
  "\u2581Niadto": 1216,
  "\u2581makabaton": 1217,
  "\u2581kasinatian": 1218,
  "Sa": 1219,
  "\u2581pagsulay": 1220,
  "\u2581relationship": 1221,
  "\u2581nothing": 1222,
  "\u2581magazine": 1223,
  "\u2581real": 1224,
  "\u2581lakip": 1225,
  "\u2581forth": 1226,
  "\u2581feelings": 1227,
  "\u2581makes": 1228,
  "\u2581desire": 1229,
  "\u2581sister": 1230,
  "\u2581Akong": 1231,
  "\u2581difficult": 1232,
  "K": 1233,
  "\u258113.": 1234,
  "ers": 1235,
  "\u2581According": 1236,
  "\u2581Kalibotan": 1237,
  "\u2581kahadlok": 1238,
  "\u2581lain": 1239,
  "\u2581here": 1240,
  "\u2581change": 1241,
  "\u2581mean": 1242,
  "\u2581ila": 1243,
  "\u2581Not": 1244,
  "\u2581wise": 1245,
  "\u2581attention": 1246,
  "\u2581panglantaw": 1247,
  "\u2581While": 1248,
  "\u2581Tingali": 1249,
  "\u2581lima": 1250,
  "\u2581nilang": 1251,
  "\u2581anon": 1252,
  "\u2581gamiton": 1253,
  "\u2581giving": 1254,
  "\u2581Greek": 1255,
  "\u25818:": 1256,
  "\u2581Read": 1257,
  "\u2581strong": 1258,
  "\u2581receive": 1259,
  "\u2581sense": 1260,
  "\u2581libro": 1261,
  "\u2581siyang": 1262,
  "\u258111.": 1263,
  "\u2581James": 1264,
  "\u2581soul": 1265,
  "ic": 1266,
  "\u2581hustong": 1267,
  "\u2581Corinthians": 1268,
  "\u2581asoy": 1269,
  "\u2581heavenly": 1270,
  "\u2581needs": 1271,
  "\u2581librong": 1272,
  "\u2581kahayag": 1273,
  "\u2581m": 1274,
  "\u258116.": 1275,
  "\u2581avoid": 1276,
  "as": 1277,
  "\u2581lead": 1278,
  "\u2581Today": 1279,
  "\u2581second": 1280,
  "ud": 1281,
  "\u25819.": 1282,
  "\u2581maingon": 1283,
  "\u2581Kita": 1284,
  "\u2581People": 1285,
  "\u2581special": 1286,
  "\u2581panglawas": 1287,
  "\u258112.": 1288,
  "\u2581countries": 1289,
  "\u2581tigulang": 1290,
  "\u2581taas": 1291,
  "\u2581tumong": 1292,
  "\u2581Basaha": 1293,
  "\u2581Timothy": 1294,
  "\u2581question": 1295,
  "\u2581unsaon": 1296,
  "\u2581ubay": 1297,
  "\u2581hiyas": 1298,
  "\u2581comes": 1299,
  "\u2581kaaway": 1300,
  "\u2581message": 1301,
  "\u258115:": 1302,
  "\u2581hands": 1303,
  "\u2581Bisag": 1304,
  "\u2581kasaysayan": 1305,
  "\u2581likely": 1306,
  "\u2581abot": 1307,
  "us": 1308,
  "\u2581Ayaw": 1309,
  "\u2581nay": 1310,
  "\u2581once": 1311,
  "\u2581lig": 1312,
  "\u2581provide": 1313,
  "\u2581moved": 1314,
  "\u2581respect": 1315,
  "\u2581Creator": 1316,
  "\u2581group": 1317,
  "\u2581templo": 1318,
  "\u2581works": 1319,
  "\u2581pinaagig": 1320,
  "\u2581knew": 1321,
  "\u2581Timoteo": 1322,
  "\u2581past": 1323,
  "\u25813,": 1324,
  "\u2581whether": 1325,
  "\u2581baptized": 1326,
  "\u2581don": 1327,
  "\u258127": 1328,
  "\u2581wrong": 1329,
  "\u2581eat": 1330,
  "O": 1331,
  "\u2581Nan": 1332,
  "\u2581Are": 1333,
  "\u2581makadaot": 1334,
  "\u25816.": 1335,
  "\u2581miagi": 1336,
  "\u2581Imong": 1337,
  "\u2581anointed": 1338,
  "\u2581usahay": 1339,
  "\u2581sulat": 1340,
  "\u2581simply": 1341,
  "\u2581try": 1342,
  "\u2581head": 1343,
  "\u258117.": 1344,
  "\u2581natural": 1345,
  "\u2581gina": 1346,
  "\u2581sea": 1347,
  "\u2581panalangin": 1348,
  "or": 1349,
  "\u2581neither": 1350,
  "\u2581Israelites": 1351,
  "\u2581karnero": 1352,
  "\u2581Box": 1353,
  "\u2581nanag": 1354,
  "\u2581Maayo": 1355,
  "\u2581conduct": 1356,
  "\u2581langitnong": 1357,
  "\u2581Revelation": 1358,
  "\u2581call": 1359,
  "\u2581Maglalalang": 1360,
  "labot": 1361,
  "\u2581die": 1362,
  "\u2581igo": 1363,
  "\u2581within": 1364,
  "\u2581Niini": 1365,
  "\u2581account": 1366,
  "\u2581reports": 1367,
  "\u2581Luke": 1368,
  "ingon": 1369,
  "\u2581Pinadayag": 1370,
  "\u2581taking": 1371,
  "\u2581months": 1372,
  "\u258124:": 1373,
  "\u2581ayaw": 1374,
  "\u2581sure": 1375,
  "\u2581suffering": 1376,
  "\u258115.": 1377,
  "\u2581awtoridad": 1378,
  "is": 1379,
  "\u2581pagmando": 1380,
  "\u2581Australia": 1381,
  "\u2581ikaduha": 1382,
  "\u2581lahi": 1383,
  "\u2581matinumanong": 1384,
  "\u2581wanted": 1385,
  "\u2581Bethel": 1386,
  "\u2581dayag": 1387,
  "\u2581Those": 1388,
  "\u2581hear": 1389,
  "\u2581ourselves": 1390,
  "\u2581mosunod": 1391,
  "\u2581kingdom": 1392,
  "\u2581hangin": 1393,
  "\u2581Tower": 1394,
  "\u2581Watch": 1395,
  "\u2581return": 1396,
  "usa": 1397,
  "\u2581Awake": 1398,
  "\u2581kaniadto": 1399,
  "\u2581involved": 1400,
  "\u2581report": 1401,
  "\u2581stand": 1402,
  "\u2581Atong": 1403,
  "\u2581nakatabang": 1404,
  "\u2581local": 1405,
  "si": 1406,
  "\u2581panimalay": 1407,
  "\u25819:": 1408,
  "\u2581ot": 1409,
  "\u2581Their": 1410,
  "\u2581ago": 1411,
  "\u2581estudyante": 1412,
  "\u2581sukdanan": 1413,
  "\u2581nation": 1414,
  "\u2581paingon": 1415,
  "\u2581siyag": 1416,
  "\u2581taught": 1417,
  "\u2581written": 1418,
  "\u2581Juda": 1419,
  "\u2581follow": 1420,
  "\u2581temple": 1421,
  "\u2581gasa": 1422,
  "\u2581gyod": 1423,
  "\u2581Society": 1424,
  "\u2581Such": 1425,
  "\u2581righteousness": 1426,
  "\u2581saad": 1427,
  "\u2581tagna": 1428,
  "\u2581Dur": 1429,
  "\u2581side": 1430,
  "\u2581morag": 1431,
  "nga": 1432,
  "\u258117:": 1433,
  "\u2581less": 1434,
  "\u2581katarongan": 1435,
  "\u2581kalinaw": 1436,
  "\u2581Does": 1437,
  "\u2581See": 1438,
  "\u2581sinugdan": 1439,
  "\u2581benefit": 1440,
  "\u2581church": 1441,
  "\u2581Catholic": 1442,
  "\u2581trust": 1443,
  "\u2581already": 1444,
  "\u2581Egypt": 1445,
  "\u2581organisasyon": 1446,
  "\u2581leave": 1447,
  "\u2581common": 1448,
  "\u2581Consider": 1449,
  "\u2581area": 1450,
  "\u2581panghunahuna": 1451,
  "anan": 1452,
  "\u2581ming": 1453,
  "\u2581ten": 1454,
  "\u2581history": 1455,
  "\u2581longer": 1456,
  "\u2581miles": 1457,
  "\u2581ideya": 1458,
  "\u2581prophet": 1459,
  "\u2581similar": 1460,
  "\u2581Africa": 1461,
  "\u2581above": 1462,
  "\u2581mantalaan": 1463,
  "\u2581fire": 1464,
  "\u2581public": 1465,
  "\u2581Sanglit": 1466,
  "\u2581gisulti": 1467,
  "\u2581thinking": 1468,
  "\u2581mabuhi": 1469,
  "ka": 1470,
  "\u2581Adam": 1471,
  "\u2581Dr": 1472,
  "\u2581katilingban": 1473,
  "\u2581makakita": 1474,
  "\u2581disease": 1475,
  "\u2581further": 1476,
  "\u2581coming": 1477,
  "\u2581unod": 1478,
  "\u2581using": 1479,
  "\u2581Judah": 1480,
  "\u2581Lucas": 1481,
  "\u2581D": 1482,
  "\u2581six": 1483,
  "ad": 1484,
  "\u2581lived": 1485,
  "\u2581started": 1486,
  "en": 1487,
  "\u2581Pagmata": 1488,
  "ra": 1489,
  "\u2581Aprika": 1490,
  "\u2581mitubag": 1491,
  "\u2581lost": 1492,
  "\u2581napulo": 1493,
  "\u2581takos": 1494,
  "\u2581pray": 1495,
  "\u258126": 1496,
  "\u2581Romans": 1497,
  "\u2581kindness": 1498,
  "\u2581rather": 1499,
  "\u2581nakakita": 1500,
  "\u2581G": 1501,
  "\u2581Pictures": 1502,
  "\u2581alone": 1503,
  "\u2581gives": 1504,
  "\u2581kept": 1505,
  "\u2581pagkinabuhi": 1506,
  "\u2581physical": 1507,
  "\u2581Law": 1508,
  "aw": 1509,
  "\u2581evil": 1510,
  "\u2581THE": 1511,
  "\u2581manalagna": 1512,
  "\u2581Mag": 1513,
  "\u2581kitang": 1514,
  "\u2581teach": 1515,
  "\u2581allow": 1516,
  "\u2581interest": 1517,
  "\u2581Life": 1518,
  "\u2581material": 1519,
  "\u2581bahandi": 1520,
  "\u2581half": 1521,
  "\u2581ob": 1522,
  "\u2581sanglit": 1523,
  "\u2581misugod": 1524,
  "\u2581strength": 1525,
  "\u2581tino": 1526,
  "\u2581clear": 1527,
  "\u2581pagpangita": 1528,
  "\u2581Joseph": 1529,
  "\u2581uswag": 1530,
  "\u2581AIDS": 1531,
  "\u2581Hebreohanon": 1532,
  "\u2581certainly": 1533,
  "\u2581evidence": 1534,
  "\u2581basin": 1535,
  "walay": 1536,
  "\u2581act": 1537,
  "\u2581based": 1538,
  "\u2581Acts": 1539,
  "\u2581sheep": 1540,
  "\u2581sacrifice": 1541,
  "G": 1542,
  "\u2581married": 1543,
  "\u2581kasuko": 1544,
  "\u258118.": 1545,
  "\u2581magpadayon": 1546,
  "\u2581remain": 1547,
  "\u2581mabatonan": 1548,
  "\u2581pagpakig": 1549,
  "\u2581seven": 1550,
  "\u2581libo": 1551,
  "\u2581false": 1552,
  "\u2581tanom": 1553,
  "\u2581perfect": 1554,
  "\u2581open": 1555,
  "\u2581divine": 1556,
  "\u2581bakak": 1557,
  "\u2581Pagka": 1558,
  "\u25819,": 1559,
  "\u2581matters": 1560,
  "\u2581manulonda": 1561,
  "\u2581glory": 1562,
  "ve": 1563,
  "\u2581whose": 1564,
  "\u2581greater": 1565,
  "\u2581mohatag": 1566,
  "st": 1567,
  "\u2581hayop": 1568,
  "\u2581langgam": 1569,
  "\u2581aduna": 1570,
  "\u2581butanga": 1571,
  "\u2581attitude": 1572,
  "\u2581pagpa": 1573,
  "\u2581government": 1574,
  "\u2581Therefore": 1575,
  "\u2581Adan": 1576,
  "\u2581fully": 1577,
  "\u2581serving": 1578,
  "\u2581principles": 1579,
  "\u2581anyone": 1580,
  "You": 1581,
  "\u2581duna": 1582,
  "\u2581rest": 1583,
  "\u2581shows": 1584,
  "\u2581happiness": 1585,
  "\u2581spoke": 1586,
  "\u2581makapa": 1587,
  "\u2581itself": 1588,
  "\u2581menos": 1589,
  "\u2581showed": 1590,
  "\u2581field": 1591,
  "\u2581km": 1592,
  "\u2581palibot": 1593,
  "\u2581understanding": 1594,
  "\u2581para": 1595,
  "\u2581enough": 1596,
  "\u2581friend": 1597,
  "\u2581Mahimo": 1598,
  "\u2581several": 1599,
  "\u258129": 1600,
  "\u25816,": 1601,
  "\u2581loved": 1602,
  "\u2581makahatag": 1603,
  "T": 1604,
  "\u2581gayud": 1605,
  "\u2581Buhat": 1606,
  "\u2581perhaps": 1607,
  "ipong": 1608,
  "\u2581Ikaw": 1609,
  "\u2581serious": 1610,
  "\u2581popular": 1611,
  "el": 1612,
  "\u2581giisip": 1613,
  "\u2581lugar": 1614,
  "\u2581sumusunod": 1615,
  "\u2581magtutudlo": 1616,
  "\u2581gisugo": 1617,
  "\u2581families": 1618,
  "\u2581moderno": 1619,
  "\u2581anything": 1620,
  "M": 1621,
  "\u2581born": 1622,
  "\u2581padayong": 1623,
  "U": 1624,
  "\u2581deep": 1625,
  "\u2581simbahan": 1626,
  "\u2581animals": 1627,
  "hon": 1628,
  "\u2581Will": 1629,
  "\u2581flesh": 1630,
  "\u2581misyonaryo": 1631,
  "\u2581kabalaka": 1632,
  "hi": 1633,
  "\u2581Ngano": 1634,
  "\u2581issue": 1635,
  "\u2581bulawan": 1636,
  "\u2581nagtaho": 1637,
  "\u2581poor": 1638,
  "\u2581bunga": 1639,
  "\u2581held": 1640,
  "\u2581India": 1641,
  "\u2581everlasting": 1642,
  "\u2581truly": 1643,
  "\u2581L": 1644,
  "\u2581hold": 1645,
  "\u2581kasakit": 1646,
  "\u2581Kahon": 1647,
  "\u2581kaso": 1648,
  "\u2581got": 1649,
  "\u2581pagsulti": 1650,
  "\u2581unom": 1651,
  "\u2581Siyempre": 1652,
  "lo": 1653,
  "\u258160": 1654,
  "\u2581payunir": 1655,
  "\u2581explains": 1656,
  "\u2581forever": 1657,
  "\u2581priest": 1658,
  "\u258128": 1659,
  "\u2581pain": 1660,
  "\u2581hours": 1661,
  "\u2581provided": 1662,
  "\u2581taho": 1663,
  "\u2581mentioned": 1664,
  "\u2581rule": 1665,
  "\u2581sun": 1666,
  "f": 1667,
  "\u25814,": 1668,
  "\u2581masabtan": 1669,
  "\u2581kalayo": 1670,
  "\u2581tree": 1671,
  "\u2581Bansa": 1672,
  "\u2581pagkamatarong": 1673,
  "\u2581modern": 1674,
  "\u2581gitudlo": 1675,
  "\u2581H": 1676,
  "\u2581Roman": 1677,
  "\u2581Uropa": 1678,
  "\u2581visit": 1679,
  "no": 1680,
  "\u2581lungsod": 1681,
  "\u2581meaning": 1682,
  "\u25815,": 1683,
  "\u2581teksto": 1684,
  "\u00b7": 1685,
  "\u2581named": 1686,
  "\u2581Brazil": 1687,
  "\u2581nawong": 1688,
  "\u2581effect": 1689,
  "\u2581materyal": 1690,
  "\u2581naglakip": 1691,
  "\u2581voice": 1692,
  "\u258118:": 1693,
  "\u2581gipa": 1694,
  "\u2581dihay": 1695,
  "\u2581sobra": 1696,
  "\u2581explained": 1697,
  "\u2581Canada": 1698,
  "\u2581daughter": 1699,
  "\u2581deal": 1700,
  "\u2581offer": 1701,
  "\u2581pagsunod": 1702,
  "\u2581happened": 1703,
  "\u2581kilometros": 1704,
  "\u2581malipayon": 1705,
  "ne": 1706,
  "\u2581naningkamot": 1707,
  "\u2581normal": 1708,
  "\u258132": 1709,
  "\u2581II": 1710,
  "\u2581nangutana": 1711,
  "\u2581katungod": 1712,
  "\u2581pagtahod": 1713,
  "\u2581thousands": 1714,
  "\u2581walk": 1715,
  "\u2581panan": 1716,
  "\u2581resurrection": 1717,
  "\u2581Times": 1718,
  "\u2581suod": 1719,
  "\u2581turned": 1720,
  "\u2581individuals": 1721,
  "\u2581gamhanan": 1722,
  "\u2581seem": 1723,
  "ness": 1724,
  "\u258170": 1725,
  "z": 1726,
  "\u2581J": 1727,
  "\u2581Witness": 1728,
  "\u2581least": 1729,
  "\u2581kalulot": 1730,
  "\u2581offering": 1731,
  "\u2581Rather": 1732,
  "\u2581estorya": 1733,
  "\u2581tag": 1734,
  "\u2581paghukom": 1735,
  "\u2581miabot": 1736,
  "\u2581pagkadili": 1737,
  "\u2581gidala": 1738,
  "\u2581places": 1739,
  "\u2581pakigdait": 1740,
  "\u2581Most": 1741,
  "\u2581yugto": 1742,
  "\u2581Maka": 1743,
  "\u2581un": 1744,
  "\u2581magtiayon": 1745,
  "\u2581morning": 1746,
  "\u2581Maria": 1747,
  "\u2581mabasa": 1748,
  "\u2581pagtudlo": 1749,
  "\u2581pito": 1750,
  "\u2581magasin": 1751,
  "\u2581makataronganon": 1752,
  "\u2581kombensiyon": 1753,
  "\u2581ag": 1754,
  "\u2581ania": 1755,
  "\u2581kapikas": 1756,
  "\u2581millions": 1757,
  "\u2581organization": 1758,
  "\u2581paga": 1759,
  "\u2581moingon": 1760,
  "\u2581hitabo": 1761,
  "\u2581Would": 1762,
  "\u2581batang": 1763,
  "\u2581myself": 1764,
  "\u2581wonderful": 1765,
  "\u2581panag": 1766,
  "\u2581nakong": 1767,
  "h": 1768,
  "\u2581Hebrew": 1769,
  "\u2581Uban": 1770,
  "\u2581led": 1771,
  "la": 1772,
  "\u2581continued": 1773,
  "\u2581remember": 1774,
  "\u2581effort": 1775,
  "ay": 1776,
  "\u2581100": 1777,
  "\u2581Tagda": 1778,
  "\u25812,": 1779,
  "\u2581tiil": 1780,
  "\u2581followers": 1781,
  "\u2581Europe": 1782,
  "\u258119.": 1783,
  "\u2581almost": 1784,
  "\u258116:": 1785,
  "\u2581Gregong": 1786,
  "\u2581droga": 1787,
  "\u2581judgment": 1788,
  "\u2581heavens": 1789,
  "ta": 1790,
  "\u2581violence": 1791,
  "\u2581cities": 1792,
  "\u258137": 1793,
  "\u2581kadaot": 1794,
  "\u2581move": 1795,
  "\u2581milyong": 1796,
  "\u2581pagtan": 1797,
  "D": 1798,
  "\u2581period": 1799,
  "\u2581makahimo": 1800,
  "\u2581speaking": 1801,
  "\u2581accept": 1802,
  "\u2581hundred": 1803,
  "\u2581apostles": 1804,
  "\u2581kapeligrohan": 1805,
  "\u2581gobyerno": 1806,
  "\u2581init": 1807,
  "\u2581seek": 1808,
  "\u2581everything": 1809,
  "eth": 1810,
  "\u2581bukid": 1811,
  "\u2581hearts": 1812,
  "\u2581N": 1813,
  "L": 1814,
  "\u2581Or": 1815,
  "\u2581air": 1816,
  "\u2581F": 1817,
  "\u2581hilabihan": 1818,
  "\u2581baba": 1819,
  "\u2581pisikal": 1820,
  "\u2581various": 1821,
  "\u2581Mexico": 1822,
  "man": 1823,
  "\u2581thousand": 1824,
  "\u2581isyu": 1825,
  "\u2581efforts": 1826,
  "\u2581gisulat": 1827,
  "\u2581papel": 1828,
  "\u2581moadto": 1829,
  "\u2581Kinabuhi": 1830,
  "\u2581Mary": 1831,
  "\u2581lokal": 1832,
  "\u2581servant": 1833,
  "\u258114,": 1834,
  "\u2581older": 1835,
  "\u2581please": 1836,
  "\u2581id": 1837,
  "\u2581Re": 1838,
  "\u2581considered": 1839,
  "\u2581panggawi": 1840,
  "\u2581Asia": 1841,
  "\u2581youths": 1842,
  "\u258133": 1843,
  "\u2581hath": 1844,
  "Kon": 1845,
  "\u2581pagsusi": 1846,
  "\u2581authority": 1847,
  "\u2581ground": 1848,
  "\u2581meeting": 1849,
  "\u2581pagkabanhaw": 1850,
  "\u2581working": 1851,
  "\u2581kaluwasan": 1852,
  "\u2581Indeed": 1853,
  "\u2581South": 1854,
  "\u2581Jewish": 1855,
  "\u2581magbalantay": 1856,
  "\u2581simple": 1857,
  "de": 1858,
  "\u2581nahibaloan": 1859,
  "\u2581diyosnong": 1860,
  "\u2581Papa": 1861,
  "\u2581cut": 1862,
  "\u2581qualities": 1863,
  "mo": 1864,
  "\u2581easy": 1865,
  "\u2581stated": 1866,
  "\u2581kog": 1867,
  "\u2581nagkinahanglan": 1868,
  "ar": 1869,
  "\u2581Church": 1870,
  "\u2581programa": 1871,
  "it": 1872,
  "\u2581bili": 1873,
  "\u2581bay": 1874,
  "\u2581pultahan": 1875,
  "\u2581priests": 1876,
  "\u2581eskuylahan": 1877,
  "\u2581gain": 1878,
  "\u2581articles": 1879,
  "\u2581promise": 1880,
  "\u2581prophecy": 1881,
  "\u2581Panahon": 1882,
  "\u2581Pa": 1883,
  "\u2581Jose": 1884,
  "\u2581miadto": 1885,
  "\u2581gift": 1886,
  "\u2581available": 1887,
  "\u2581sisters": 1888,
  "\u2581pagkahimong": 1889,
  "\u2581pribilehiyo": 1890,
  "\u2581sayon": 1891,
  "\u2581Torre": 1892,
  "\u2581powerful": 1893,
  "\u2581nakat": 1894,
  "\u2581linain": 1895,
  "\u2581pamatuod": 1896,
  "\u2581Another": 1897,
  "\u2581Gilead": 1898,
  "\u2581parts": 1899,
  "\u2581American": 1900,
  "\u2581London": 1901,
  "\u2581Santiago": 1902,
  "\u2581text": 1903,
  "NG": 1904,
  "\u2581freedom": 1905,
  "\u2581caused": 1906,
  "\u2581naghunahuna": 1907,
  "\u2581throughout": 1908,
  "\u2581covenant": 1909,
  "\u2581kapitulo": 1910,
  "\u258116,": 1911,
  "\u2581changed": 1912,
  "\u2581letter": 1913,
  "ni": 1914,
  "\u2581single": 1915,
  "\u2581magsusulat": 1916,
  "\u258120:": 1917,
  "\u2581clean": 1918,
  "\u2581comfort": 1919,
  "\u2581value": 1920,
  "\u2581anger": 1921,
  "\u2581built": 1922,
  "\u2581labot": 1923,
  "\u2581pagtuman": 1924,
  "\u2581apil": 1925,
  "\u2581circumstances": 1926,
  "\u2581hamtong": 1927,
  "\u2581spiritually": 1928,
  "\u2581activity": 1929,
  "\u2581publikasyon": 1930,
  "\u258120.": 1931,
  "\u2581gagmayng": 1932,
  "\u2581birth": 1933,
  "\u2581siyentipiko": 1934,
  "\u2581witness": 1935,
  "\u2581impluwensiya": 1936,
  "\u2581uyon": 1937,
  "\u2581Una": 1938,
  "\u2581hataas": 1939,
  "\u2581usually": 1940,
  "\u2581Bahin": 1941,
  "\u2581carry": 1942,
  "\u2581doubt": 1943,
  "\u2581himaya": 1944,
  "\u2581everyone": 1945,
  "\u2581described": 1946,
  "\u2581regarding": 1947,
  "\u2581Aaron": 1948,
  "\u2581mapuslanon": 1949,
  "\u2581write": 1950,
  "H": 1951,
  "\u2581inay": 1952,
  "\u2581pass": 1953,
  "\u2581pagsulat": 1954,
  "\u2581barko": 1955,
  ",...": 1956,
  "\u2581meet": 1957,
  "\u2581legal": 1958,
  "\u2581kahigayonan": 1959,
  "\u2581answered": 1960,
  "\u2581makig": 1961,
  "\u2581mouth": 1962,
  "\u2581slave": 1963,
  "\u2581isip": 1964,
  "\u2581pasyente": 1965,
  "ti": 1966,
  "gi": 1967,
  "\u2581Ilang": 1968,
  "\u2581kuwarta": 1969,
  "\u2581True": 1970,
  "\u2581tibook": 1971,
  "\u2581\u25cf": 1972,
  "\u2581makaplagan": 1973,
  "\u258111,": 1974,
  "\u2581sound": 1975,
  "mi": 1976,
  "\u2581pangulo": 1977,
  "\u2581English": 1978,
  "\u2581inspired": 1979,
  "\u2581nagtudlo": 1980,
  "\u2581Ecclesiastes": 1981,
  "ba": 1982,
  "\u2581Hebrews": 1983,
  "\u2581events": 1984,
  "\u2581pagdumala": 1985,
  "\u2581door": 1986,
  "\u2581gold": 1987,
  "\u02b9": 1988,
  "\u2581Like": 1989,
  "\u2581pakigpulong": 1990,
  "\u2581worldwide": 1991,
  "\u25817,": 1992,
  "\u2581students": 1993,
  "\u2581La": 1994,
  "\u2581edyer": 1995,
  "\u2581linalang": 1996,
  "\u2581returned": 1997,
  "\u2581month": 1998,
  "\u258121.": 1999,
  "\u2581mobati": 2000,
  "\u2581makat": 2001,
  "\u2581University": 2002,
  "\u2581Kinahanglang": 2003,
  "\u2581tried": 2004,
  "\u2581source": 2005,
  "\u2581subject": 2006,
  "\u2581kolor": 2007,
  "\u2581Sulod": 2008,
  "\u2581lands": 2009,
  "ro": 2010,
  "\u2581Did": 2011,
  "\u2581sundalo": 2012,
  "\u2581Dako": 2013,
  "\u2581tinapay": 2014,
  "\u2581metros": 2015,
  "ll": 2016,
  "\u2581served": 2017,
  "\u2581short": 2018,
  "\u2581sinulat": 2019,
  "\u2581published": 2020,
  "\u2581build": 2021,
  "\u2581Bantayan": 2022,
  "\u2581diyos": 2023,
  "GA": 2024,
  "\u2581congregations": 2025,
  "hupot": 2026,
  "\u2581role": 2027,
  "\u2581awit": 2028,
  "\u2581pages": 2029,
  "\u2581Devil": 2030,
  "\u2581uli": 2031,
  "\u2581takes": 2032,
  "\u2581books": 2033,
  "\u2581affect": 2034,
  "\u2581met": 2035,
  "\u2581seems": 2036,
  "\u2581kopya": 2037,
  "\u2581opportunity": 2038,
  "\u2581ability": 2039,
  "\u2581Yawa": 2040,
  "\u2581Sukad": 2041,
  "\u2581TV": 2042,
  "\u2581grow": 2043,
  "\u2581pagtukod": 2044,
  "\u2581daily": 2045,
  "\u2581listen": 2046,
  "\u2581maunongon": 2047,
  "\u2581branch": 2048,
  "\u2581sins": 2049,
  "im": 2050,
  "\u2581reach": 2051,
  "\u2581kabos": 2052,
  "\u2581pagbaton": 2053,
  "\u2581amihanan": 2054,
  "\u2581building": 2055,
  "\u2581batasan": 2056,
  "\u2581former": 2057,
  "\u2581offered": 2058,
  "\u2581centuries": 2059,
  "\u2581kalit": 2060,
  "\u2581sexual": 2061,
  "\u2581else": 2062,
  "\u2581helps": 2063,
  "pag": 2064,
  "\u2581job": 2065,
  "\u2581kinahanglanon": 2066,
  "\u2581kinaiyanhong": 2067,
  "\u2581newspaper": 2068,
  "se": 2069,
  "\u2581Internet": 2070,
  "\u2581medical": 2071,
  "\u2581nagpasabot": 2072,
  "\u2581panit": 2073,
  "\u2581silingan": 2074,
  "\u2581nabatonan": 2075,
  "\u2581areas": 2076,
  "\u2581Balaod": 2077,
  "\u2581Amerika": 2078,
  "\u2581accepted": 2079,
  "\u2581hapit": 2080,
  "il": 2081,
  "\u2581created": 2082,
  "\u2581decision": 2083,
  "\u2581Labi": 2084,
  "\u2581musika": 2085,
  "\u2581gipatik": 2086,
  "\u2581activities": 2087,
  "\u2581midugang": 2088,
  "ur": 2089,
  "\u2581class": 2090,
  "u": 2091,
  "\u2581hisgotan": 2092,
  "\u2581actually": 2093,
  "\u2581balaan": 2094,
  "\u2581diay": 2095,
  "\u2581confidence": 2096,
  "\u2581sab": 2097,
  "\u2581proved": 2098,
  "\u2581makakat": 2099,
  "\u2581klase": 2100,
  "\u2581pioneer": 2101,
  "est": 2102,
  "\u2581vital": 2103,
  "\u2581Instead": 2104,
  "\u2581recent": 2105,
  "\u2581Nga": 2106,
  "\u2581ihatag": 2107,
  "\u2581Dihang": 2108,
  "\u2581kahibulongan": 2109,
  "\u258110,": 2110,
  "ag": 2111,
  "\u2581tambal": 2112,
  "\u2581learning": 2113,
  "\u2581Hence": 2114,
  "\u258112,": 2115,
  "\u2581fall": 2116,
  "\u2581Still": 2117,
  "less": 2118,
  "\u258123]": 2119,
  "\u2581behind": 2120,
  "\u2581kagamhanan": 2121,
  "\u2581pagdawat": 2122,
  "\u2581honor": 2123,
  "\u2581giingnan": 2124,
  "\u2581prayers": 2125,
  "\u2581Mark": 2126,
  "\u2581nagkalainlai": 2127,
  "\u2581indeed": 2128,
  "\u2581tagsatagsa": 2129,
  "\u2581kapintasan": 2130,
  "\u2581drink": 2131,
  "\u2581music": 2132,
  "\u2581promises": 2133,
  "\u2581prove": 2134,
  "\u2581suba": 2135,
  "\u2581answers": 2136,
  "\u2581bugtong": 2137,
  "\u2581mental": 2138,
  "\u2581thoughts": 2139,
  "\u2581Amo": 2140,
  "\u2581hangt": 2141,
  "\u2581War": 2142,
  "\u2581beautiful": 2143,
  "\u2581nakaplagan": 2144,
  "\u2581influence": 2145,
  "\u2581atubang": 2146,
  "\u2581beginning": 2147,
  "\u2581start": 2148,
  "\u2581blessing": 2149,
  "\u2581nan": 2150,
  "\u2581third": 2151,
  "\u2581Unsaon": 2152,
  "\u2581sometimes": 2153,
  "\u2581Noe": 2154,
  "\u2581added": 2155,
  "\u2581advice": 2156,
  "\u2581atake": 2157,
  "\u2581praise": 2158,
  "do": 2159,
  "\u2581Isaac": 2160,
  "\u2581standards": 2161,
  "\u2581changes": 2162,
  "\u2581kahikayan": 2163,
  "\u2581sangpotanan": 2164,
  "\u2581Gawas": 2165,
  "\u2581entire": 2166,
  "\u25817]": 2167,
  "\u2581position": 2168,
  "\u2581pressure": 2169,
  "\u2581stop": 2170,
  "\u2581didn": 2171,
  "\u2581Just": 2172,
  "\u2581instance": 2173,
  "\u2581reported": 2174,
  "\u2581giya": 2175,
  "\u2581getting": 2176,
  "\u2581appointed": 2177,
  "\u2581couple": 2178,
  "\u2581office": 2179,
  "\u2581kanasoran": 2180,
  "\u2581suffer": 2181,
  "\u2581tunga": 2182,
  "ia": 2183,
  "\u2581Mama": 2184,
  "\u2581appropriate": 2185,
  "\u2581rich": 2186,
  "\u2581sukod": 2187,
  "\u2581killed": 2188,
  "\u2581Jeremias": 2189,
  "\u2581sakyanan": 2190,
  "\u2581state": 2191,
  "2": 2192,
  "\u2581Jeremiah": 2193,
  "\u2581week": 2194,
  "\u258117]": 2195,
  "\u2581Paagi": 2196,
  "\u2581Ba": 2197,
  "\u2581godly": 2198,
  "\u2581kinaiya": 2199,
  "\u2581kansang": 2200,
  "\u2581nahigugma": 2201,
  "\u2581Angay": 2202,
  "\u2581Pero": 2203,
  "\u2581Niana": 2204,
  "\u2581Great": 2205,
  "\u2581Mas": 2206,
  "\u2581kaluoy": 2207,
  "\u2581decided": 2208,
  "\u2581Moreover": 2209,
  "\u2581silag": 2210,
  "\u2581pagdayeg": 2211,
  "\u2581results": 2212,
  "\u2581labi": 2213,
  "\u2581indibiduwal": 2214,
  "\u2581sight": 2215,
  "\u2581willing": 2216,
  "\u2581Gusto": 2217,
  "\u2581bear": 2218,
  "\u2581force": 2219,
  "\u2581Noah": 2220,
  "\u2581First": 2221,
  "\u2581destruction": 2222,
  "\u2581wonder": 2223,
  "\u2581ay": 2224,
  "\u2581apostoles": 2225,
  "\u2581makadawat": 2226,
  "\u2581Ask": 2227,
  "os": 2228,
  "\u2581cases": 2229,
  "\u2581stay": 2230,
  "\u2581Babylon": 2231,
  "\u2581fruit": 2232,
  "\u2581pagkamatuod": 2233,
  "\u2581trees": 2234,
  "\u2581Efeso": 2235,
  "\u2581raised": 2236,
  "\u2581magasing": 2237,
  "\u2581prison": 2238,
  "\u2581complete": 2239,
  "\u2581maghunahuna": 2240,
  "\u2581negosyo": 2241,
  "\u2581apply": 2242,
  "\u2581clearly": 2243,
  "\u2581pagkahibalo": 2244,
  "\u2581exercise": 2245,
  "\u2581maningkamot": 2246,
  "\u2581rang": 2247,
  "\u2581More": 2248,
  "\u2581Romano": 2249,
  "\u2581education": 2250,
  "\u2581Have": 2251,
  "\u2581Nevertheless": 2252,
  "\u2581laws": 2253,
  "ot": 2254,
  "\u258115]": 2255,
  "\u2581oil": 2256,
  "\u2581sacerdote": 2257,
  "ation": 2258,
  "\u2581angels": 2259,
  "\u2581punto": 2260,
  "\u258123.": 2261,
  "\u2581car": 2262,
  "\u2581importante": 2263,
  "\u2581ilado": 2264,
  "\u2581either": 2265,
  "ting": 2266,
  "\u2581develop": 2267,
  "\u2581experienced": 2268,
  "\u2581concern": 2269,
  "\u2581inusara": 2270,
  "\u2581Ehipto": 2271,
  "\u2581passed": 2272,
  "\u2581filled": 2273,
  "\u2581social": 2274,
  "\u2581quickly": 2275,
  "\u2581earlier": 2276,
  "\u2581Kami": 2277,
  "\u2581matinumanon": 2278,
  "\u2581shown": 2279,
  "\u2581malipayong": 2280,
  "\u2581malipay": 2281,
  "\u2581Japan": 2282,
  "da": 2283,
  "\u2581line": 2284,
  "\u2581anam": 2285,
  "\u2581examples": 2286,
  "\u2581asa": 2287,
  "God": 2288,
  "\u2581practice": 2289,
  "pa": 2290,
  "\u2581biktima": 2291,
  "\u2581Later": 2292,
  "\u2581dagway": 2293,
  "able": 2294,
  "\u2581increase": 2295,
  "\u2581kasal": 2296,
  "at": 2297,
  "\u2581salvation": 2298,
  "\u2581porsiento": 2299,
  "\u2581pulonga": 2300,
  "\u2581commanded": 2301,
  "\u2581kasakitan": 2302,
  "\u2581sign": 2303,
  "\u2581gumikan": 2304,
  "\u2581necessary": 2305,
  "\u258122.": 2306,
  "\u2581precious": 2307,
  "\u2581Yuta": 2308,
  "\u2581bread": 2309,
  "\u2581noted": 2310,
  "\u2581risk": 2311,
  "\u2581maintain": 2312,
  "\u2581habagatan": 2313,
  "li": 2314,
  "\u2581epektibo": 2315,
  "\u2581pagkatawo": 2316,
  "\u2581tunghaan": 2317,
  "\u2581enemies": 2318,
  "od": 2319,
  "\u2581beyond": 2320,
  "\u2581outside": 2321,
  "\u2581duhaduha": 2322,
  "\u2581interes": 2323,
  "\u2581opisyal": 2324,
  "\u2581pagbansay": 2325,
  "\u2581program": 2326,
  "\u2581seryoso": 2327,
  "\u2581Eva": 2328,
  "bo": 2329,
  "\u2581Usahay": 2330,
  "\u2581c": 2331,
  "\u258113,": 2332,
  "\u2581isla": 2333,
  "\u2581lot": 2334,
  "R": 2335,
  "\u2581parent": 2336,
  "\u2581followed": 2337,
  "\u2581privilege": 2338,
  "\u2581sinugdanan": 2339,
  "\u2581appreciation": 2340,
  "\u2581gitas": 2341,
  "ko": 2342,
  "\u258124.": 2343,
  "\u2581training": 2344,
  "\u2581re": 2345,
  "\u2581edukasyon": 2346,
  "\u2581magtatan": 2347,
  "\u2581p": 2348,
  "\u2581ciudad": 2349,
  "he": 2350,
  "\u2581hour": 2351,
  "\u2581include": 2352,
  "\u2581kings": 2353,
  "\u2581sex": 2354,
  "\u2581appreciate": 2355,
  "\u2581addition": 2356,
  "\u2581pagpili": 2357,
  "\u2581direction": 2358,
  "ut": 2359,
  "\u2581creation": 2360,
  "\u2581accurate": 2361,
  "\u2581political": 2362,
  "We": 2363,
  "\u2581Where": 2364,
  "\u2581looking": 2365,
  "nag": 2366,
  "\u2581promised": 2367,
  "\u2581reasons": 2368,
  "\u2581Duna": 2369,
  "\u2581girl": 2370,
  "\u2581room": 2371,
  "\u2581ulan": 2372,
  "\u2581molupyo": 2373,
  "\u2581Scriptural": 2374,
  "\u2581kinadak": 2375,
  "\u2581gikuha": 2376,
  "\u2581isulti": 2377,
  "\u2581regard": 2378,
  "\u2581attend": 2379,
  "\u2581kaliwatan": 2380,
  "\u2581lack": 2381,
  "\u2581About": 2382,
  "\u2581conditions": 2383,
  "\u2581nakig": 2384,
  "\u2581draw": 2385,
  "\u2581teachings": 2386,
  "ry": 2387,
  "co": 2388,
  "\u2581gihatagan": 2389,
  "\u2581recorded": 2390,
  "\u2581lakang": 2391,
  "\u2581baptism": 2392,
  "\u2581France": 2393,
  "\u2581Gubat": 2394,
  "\u2581determined": 2395,
  "\u2581nangamatay": 2396,
  "\u2581spoken": 2397,
  "\u2581convention": 2398,
  "\u2581ebidensiya": 2399,
  "pe": 2400,
  "\u2581Hinuon": 2401,
  "\u2581speech": 2402,
  "\u2581sleep": 2403,
  "\u2581treatment": 2404,
  "\u2581protect": 2405,
  "It": 2406,
  "\u2581Though": 2407,
  "\u2581kasaligan": 2408,
  "\u2581utok": 2409,
  "\u2581lawak": 2410,
  "Jehovah": 2411,
  "\u2581blessings": 2412,
  "\u2581nagpa": 2413,
  "\u2581responsibility": 2414,
  "\u2581action": 2415,
  "\u2581ready": 2416,
  "Ako": 2417,
  "\u2581Latin": 2418,
  "\u2581preach": 2419,
  "\u2581conscience": 2420,
  "\u2581magpa": 2421,
  ").": 2422,
  "pamatud": 2423,
  "\u2581Before": 2424,
  "\u2581kalisdanan": 2425,
  "\u2581kinaiyahan": 2426,
  "\u2581major": 2427,
  "\u2581Bag": 2428,
  "\u2581Children": 2429,
  "\u2581white": 2430,
  "\u2581Others": 2431,
  "\u2581ansiano": 2432,
  "\u2581buhatan": 2433,
  "\u2581helping": 2434,
  "\u2581nature": 2435,
  "\u2581tawhana": 2436,
  "\u2581youth": 2437,
  "\u2581paghunahuna": 2438,
  "\u2581Germany": 2439,
  "\u2581dautan": 2440,
  "\u2581literal": 2441,
  "\u2581ransom": 2442,
  "\u2581katingalahan": 2443,
  "\u2581regularly": 2444,
  "\u2581selula": 2445,
  "\u2581Lagmit": 2446,
  "\u2581paagiha": 2447,
  "\u2581gibutang": 2448,
  "\u2581allowed": 2449,
  "\u2581Young": 2450,
  "\u2581eye": 2451,
  "\u2581naggamit": 2452,
  "\u2581chapter": 2453,
  "\u2581becoming": 2454,
  "\u2581spread": 2455,
  "\u2581isda": 2456,
  "\u2581condition": 2457,
  "If": 2458,
  "\u2581binhi": 2459,
  "\u2581nindot": 2460,
  "\u2581realize": 2461,
  "\u2581fish": 2462,
  "\u2581sekso": 2463,
  "dili": 2464,
  "um": 2465,
  "\u2581interesado": 2466,
  "\u2581proper": 2467,
  "ug": 2468,
  "\u2581harmony": 2469,
  "\u2581produce": 2470,
  "\u2581Itandi": 2471,
  "\u2581presence": 2472,
  "\u2581ato": 2473,
  "\u2581pagduaw": 2474,
  "\u2581feeling": 2475,
  "\u2581developed": 2476,
  "id": 2477,
  "\u2581kalainan": 2478,
  "\u2581ngadtongadto": 2479,
  "\u2581babayeng": 2480,
  "\u2581contact": 2481,
  "\u2581pagkakita": 2482,
  "me": 2483,
  "\u2581nahibilin": 2484,
  "\u2581Babilonya": 2485,
  "\u2581blessed": 2486,
  "\u2581kasundalohan": 2487,
  "\u2581lukat": 2488,
  "\u2581spent": 2489,
  "\u2581record": 2490,
  "\u2581bililhong": 2491,
  "\u2581languages": 2492,
  "\u2581occasion": 2493,
  "\u2581saserdote": 2494,
  "\u258126]": 2495,
  "\u2581Hebreohanong": 2496,
  "\u2581knows": 2497,
  "\u2581individual": 2498,
  "\u2581address": 2499,
  "\u2581shal": 2500,
  "\u2581nailhan": 2501,
  "\u2581Batan": 2502,
  "\u2581porma": 2503,
  "\u2581puy": 2504,
  "\u2581matuman": 2505,
  "Dili": 2506,
  "\u2581fathers": 2507,
  "\u2581loyal": 2508,
  "\u2581Compare": 2509,
  "\u2581species": 2510,
  "\u2581gipadala": 2511,
  "\u2581mang": 2512,
  "\u2581seksuwal": 2513,
  "\u2581Buot": 2514,
  "\u2581Health": 2515,
  "\u2581interested": 2516,
  "\u2581trying": 2517,
  "\u2581gayoy": 2518,
  "\u2581manag": 2519,
  "\u2581foretold": 2520,
  "\u2581kinig": 2521,
  "\u2581notes": 2522,
  "\u2581ministro": 2523,
  "\u2581panghitabo": 2524,
  "\u2581literature": 2525,
  "\u2581pagkuha": 2526,
  "\u2581destroyed": 2527,
  "\u2581happen": 2528,
  "\u2581encouraged": 2529,
  "\u2581gituohan": 2530,
  "\u2581wine": 2531,
  "\u2581concerning": 2532,
  "\u258117,": 2533,
  "\u2581R": 2534,
  "\u2581ilhanan": 2535,
  "\u2581nagkinabuhi": 2536,
  "ch": 2537,
  "\u2581Holy": 2538,
  "\u2581nagkinahanglag": 2539,
  "\u2581naglungtad": 2540,
  "\u2581puno": 2541,
  "\u2581paraiso": 2542,
  "\u2581England": 2543,
  "\u2581greatest": 2544,
  "ce": 2545,
  "\u2581Joshua": 2546,
  "\u2581behold": 2547,
  "\u2581waters": 2548,
  "\u2581basis": 2549,
  "\u2581justice": 2550,
  "\u2581prevent": 2551,
  "\u2581mobalik": 2552,
  "\u2581School": 2553,
  "\u2581practical": 2554,
  "\u2581decisions": 2555,
  "\u258119,": 2556,
  "\u2581worked": 2557,
  "\u2581pagtambal": 2558,
  "?\"": 2559,
  "be": 2560,
  "\u2581latas": 2561,
  "\u2581seed": 2562,
  "ya": 2563,
  "\u2581choose": 2564,
  "\u2581milabay": 2565,
  "\u2581positive": 2566,
  "pig": 2567,
  "\u2581revealed": 2568,
  "\u2581prepared": 2569,
  "\u2581business": 2570,
  "\u2581ilimnon": 2571,
  "\u2581imitate": 2572,
  "\u2581mercy": 2573,
  "\u2581pagtambong": 2574,
  "\u2581yourselves": 2575,
  "\u258125]": 2576,
  "\u2581related": 2577,
  "\u2581sakop": 2578,
  "\u2581peligroso": 2579,
  "\u2581dinihogang": 2580,
  "\u2581homes": 2581,
  "\u2581paradise": 2582,
  "5": 2583,
  "\u2581husto": 2584,
  "4": 2585,
  "\u2581believers": 2586,
  "\u2581malig": 2587,
  "\u2581pagdasig": 2588,
  "\u2581langyaw": 2589,
  "\u2581society": 2590,
  "\u2581alive": 2591,
  "\u2581quality": 2592,
  "\u2581Perhaps": 2593,
  "\u2581emotional": 2594,
  "\u2581krimen": 2595,
  "\u2581pagpatay": 2596,
  "\u2581ugmad": 2597,
  "\u2581ulohan": 2598,
  "\u2581begin": 2599,
  "\u2581enjoyed": 2600,
  "\u2581maghatag": 2601,
  "\u2581studies": 2602,
  "\u258180": 2603,
  "ion": 2604,
  "\u2581Also": 2605,
  "\u2581spend": 2606,
  "\u2581kaguol": 2607,
  "\u2581magsisimba": 2608,
  "\u2581per": 2609,
  "\u2581population": 2610,
  "\u2581studying": 2611,
  "\u2581pundok": 2612,
  "\u2581save": 2613,
  "\u2581ginganlag": 2614,
  "\u2581siyensiya": 2615,
  "\u2581arrived": 2616,
  "\u2581eventually": 2617,
  "\u2581gipahayag": 2618,
  "\u2581Adunay": 2619,
  "\u2581makasasala": 2620,
  "\u2581nearly": 2621,
  "\u2581crowd": 2622,
  "\u2581daku": 2623,
  "\u2581matahom": 2624,
  "\u2581minahal": 2625,
  "\u2581provides": 2626,
  "\u2581Man": 2627,
  "\u258125.": 2628,
  "\u2581footnote": 2629,
  "\u2581walking": 2630,
  "\u2581nagsulti": 2631,
  "\u2581established": 2632,
  "\u2581asaynment": 2633,
  "\u2581play": 2634,
  "\u2581Ania": 2635,
  "\u2581reaksiyon": 2636,
  "\u2581buntag": 2637,
  "\u2581carried": 2638,
  "\u2581Eve": 2639,
  "\u2581animal": 2640,
  "\u2581challenge": 2641,
  "\u2581inom": 2642,
  "\u2581katalagman": 2643,
  "\u2581nakadawat": 2644,
  "\u2581pasidaan": 2645,
  "\u258134": 2646,
  "\u2581earthly": 2647,
  "\u2581elder": 2648,
  "usab": 2649,
  "\u2581matanga": 2650,
  "\u2581mountain": 2651,
  "\u2581Ruth": 2652,
  "\u2581kabataan": 2653,
  "\u2581believed": 2654,
  "\u2581scientists": 2655,
  "ol": 2656,
  "\u2581beliefs": 2657,
  "\u2581National": 2658,
  "\u2581nagpasidaan": 2659,
  "\u2581quite": 2660,
  "\u2581success": 2661,
  "\u2581baby": 2662,
  "\u2581kasegurohan": 2663,
  "\u2581wants": 2664,
  "\u2581workers": 2665,
  "w": 2666,
  "\u2581groups": 2667,
  "\u2581tells": 2668,
  "\u2581nakahimo": 2669,
  "\u2581rason": 2670,
  "\u258190": 2671,
  "\u2581El": 2672,
  "\u2581express": 2673,
  "\u2581malisod": 2674,
  "tibuk": 2675,
  "\u2581makaila": 2676,
  "\u2581birds": 2677,
  "\u2581Soon": 2678,
  "\u2581arang": 2679,
  "\u2581original": 2680,
  "\u2581mahigugmaon": 2681,
  "\u2581mawala": 2682,
  "vi": 2683,
  "\u2581doctor": 2684,
  "\u2581fell": 2685,
  "\u2581ospital": 2686,
  "\u2581drugs": 2687,
  "\u2581sword": 2688,
  "\u2581nalipay": 2689,
  "\u2581patient": 2690,
  "\u2581research": 2691,
  "\u2581town": 2692,
  "\u2581ambit": 2693,
  "\u2581fulfillment": 2694,
  "\u2581respond": 2695,
  "lu": 2696,
  "\u2581stress": 2697,
  "\u2581acts": 2698,
  "\u2581opened": 2699,
  "\u2581pagpahayag": 2700,
  "\u2581psalmist": 2701,
  "\u2581term": 2702,
  "\u2581Jordan": 2703,
  "\u2581Katoliko": 2704,
  "\u2581lider": 2705,
  "\u2581idea": 2706,
  "\u25811990": 2707,
  "\u2581completely": 2708,
  "\u2581prayed": 2709,
  "\u2581break": 2710,
  "\u2581integrity": 2711,
  "\u2581orihinal": 2712,
  "\u2581Each": 2713,
  "\u2581growing": 2714,
  "\u2581hustisya": 2715,
  "\u2581ilustrasyon": 2716,
  "\u2581invited": 2717,
  "\u2581\u2019?": 2718,
  "\u2581kaylap": 2719,
  "\u2581Mesiyas": 2720,
  "\u2581magmamantala": 2721,
  "\u2581libre": 2722,
  "\u2581paghisgot": 2723,
  "\u2581tigdukiduki": 2724,
  "\u2581nagkahulogan": 2725,
  "\u258118]": 2726,
  "\u2581gidak": 2727,
  "\u2581general": 2728,
  "op": 2729,
  "\u2581nasayod": 2730,
  "\u2581fight": 2731,
  "\u2581salmista": 2732,
  "\u258110]": 2733,
  "\u2581dula": 2734,
  "\u2581motungha": 2735,
  "\u2581magpabilin": 2736,
  "\u2581kalingawan": 2737,
  "\u2581whatever": 2738,
  "\u2581behavior": 2739,
  "\u2581big": 2740,
  "\u2581causes": 2741,
  "\u2581City": 2742,
  "\u2581eksperto": 2743,
  "di": 2744,
  "\u2581missionary": 2745,
  "3": 2746,
  "\u2581member": 2747,
  "\u2581praktikal": 2748,
  "\u2581angel": 2749,
  "\u2581mate": 2750,
  "\u2581pagpugong": 2751,
  "\u2581espesyal": 2752,
  "\u2581ganghaan": 2753,
  "\u2581test": 2754,
  "ngang": 2755,
  "\u2581abuse": 2756,
  "\u2581seemed": 2757,
  "\u2581St": 2758,
  "\u2581discipline": 2759,
  "\u2581sick": 2760,
  "\u2581gone": 2761,
  "\u2581showing": 2762,
  "\u2581although": 2763,
  "\u2581halaran": 2764,
  "\u2581uniberso": 2765,
  "\u2581weeks": 2766,
  "\u2581eating": 2767,
  "\u2581nakabaton": 2768,
  "\u2581immediately": 2769,
  "\u2581lay": 2770,
  "\u2581pagpakitag": 2771,
  "x": 2772,
  "\u2581Love": 2773,
  "\u2581hubad": 2774,
  "\u2581looked": 2775,
  "son": 2776,
  "\u2581America": 2777,
  "\u2581aktuwal": 2778,
  "\u2581timbang": 2779,
  "\u2581fulfilled": 2780,
  "\u2581susihon": 2781,
  "\u2581mamati": 2782,
  "\u2581mibati": 2783,
  "\u2581posible": 2784,
  "\u2581security": 2785,
  "bi": 2786,
  "\u258145": 2787,
  "\u2581aktibo": 2788,
  "\u2581kaliwat": 2789,
  "\u2581paghigugma": 2790,
  "am": 2791,
  "\u2581benefits": 2792,
  "\u2581artikuloha": 2793,
  "\u2581kutob": 2794,
  "\u2581expect": 2795,
  "\u2581suffered": 2796,
  "\u258135": 2797,
  "\u2581magtutuo": 2798,
  "\u2581mogamit": 2799,
  "\u2581mubo": 2800,
  "\u2581nadawat": 2801,
  "ah": 2802,
  "\u2581dad": 2803,
  "\u2581Naka": 2804,
  "\u2581kultura": 2805,
  "\u2581calls": 2806,
  "\u2581loss": 2807,
  "\u2581magmamando": 2808,
  "pi": 2809,
  "so": 2810,
  "\u2581personality": 2811,
  "\u2581gods": 2812,
  "\u2581leaders": 2813,
  "\u2581nagpamatuod": 2814,
  "\u2581bililhon": 2815,
  "\u2581makasabot": 2816,
  "\u2581obey": 2817,
  "\u2581w": 2818,
  "\u2581magamit": 2819,
  "9": 2820,
  "\u2581seeking": 2821,
  "\u2581Keep": 2822,
  "Si": 2823,
  "\u2581kill": 2824,
  "\u2581Alemanya": 2825,
  "\u2581Brother": 2826,
  "\u2581favor": 2827,
  "\u2581kampo": 2828,
  "\u2581knowing": 2829,
  "\u2581baga": 2830,
  "\u2581magsugod": 2831,
  "ul": 2832,
  "\u2581publiko": 2833,
  "\u2581Christendom": 2834,
  "\u2581Dayag": 2835,
  "\u2581command": 2836,
  "\u2581finally": 2837,
  "\u2581Kakristiyanohan": 2838,
  "\u2581ayroplano": 2839,
  "\u2581choice": 2840,
  "\u2581observed": 2841,
  "\u2581magpabiling": 2842,
  "\u2581mohimog": 2843,
  "\u2581Ugaling": 2844,
  "\u2581persons": 2845,
  "\u2581bino": 2846,
  "\u2581eight": 2847,
  "\u2581assignment": 2848,
  "\u2581populasyon": 2849,
  "\u2581Rome": 2850,
  "\u2581natawo": 2851,
  "\u2581puwersa": 2852,
  "\u2581German": 2853,
  "\u2581strengthen": 2854,
  "\u2581paryente": 2855,
  "\u2581actions": 2856,
  "\u2581katumanan": 2857,
  "\u2581Nahibalo": 2858,
  "\u2581court": 2859,
  "\u2581dihadiha": 2860,
  "\u2581inside": 2861,
  "\u2581itandi": 2862,
  "\u2581final": 2863,
  "\u2581Her": 2864,
  "\u2581goes": 2865,
  "ig": 2866,
  "\u2581dagha": 2867,
  "\u2581Gani": 2868,
  "\u258118,": 2869,
  "\u2581protection": 2870,
  "\u2581series": 2871,
  "\u2581yanong": 2872,
  "6": 2873,
  "\u2581picture": 2874,
  "\u2581standing": 2875,
  "\u2581wives": 2876,
  "\u258120,": 2877,
  "\u258124,": 2878,
  "\u2581traveling": 2879,
  "\u2581chosen": 2880,
  "\u2581expression": 2881,
  "\u2581nagpahayag": 2882,
  "\u2581nawad": 2883,
  "\u2581French": 2884,
  "\u2581front": 2885,
  "\u2581ginahimo": 2886,
  "\u2581progress": 2887,
  "\u2581Brooklyn": 2888,
  "\u2581e": 2889,
  "\u2581kayutaan": 2890,
  "\u2581process": 2891,
  "\u2581required": 2892,
  "\u2581type": 2893,
  "\u258129.": 2894,
  "\u2581forward": 2895,
  "\u2581kun": 2896,
  "\u2581Sea": 2897,
  "\u2581boy": 2898,
  "\u2581paglakaw": 2899,
  "In": 2900,
  "\u2581heavy": 2901,
  "\u2581padayon": 2902,
  "\u2581pagkadaotan": 2903,
  "\u2581lie": 2904,
  "\u2581sentro": 2905,
  "\u2581watch": 2906,
  "\u2581Josue": 2907,
  "\u2581Kasagaran": 2908,
  "\u2581army": 2909,
  "\u2581gitukod": 2910,
  "\u2581lihok": 2911,
  "\u2581pari": 2912,
  "\u2581African": 2913,
  "\u2581Pransiya": 2914,
  "\u2581explain": 2915,
  "\u2581silver": 2916,
  "\u2581warning": 2917,
  "\u2581guidance": 2918,
  "\u2581halayo": 2919,
  "\u2581mosangpot": 2920,
  "\u2581Despi": 2921,
  "\u2581interests": 2922,
  "\u2581ting": 2923,
  "\u2581Over": 2924,
  "\u2581Time": 2925,
  "\u2581Two": 2926,
  "\u2581hinunoa": 2927,
  "\u2581relief": 2928,
  "un": 2929,
  "\u2581200": 2930,
  "\u2581kaisog": 2931,
  "\u2581pagpakita": 2932,
  "\u2581flock": 2933,
  "\u2581teacher": 2934,
  "\u2581easily": 2935,
  "\u2581teritoryo": 2936,
  "\u2581mahadlok": 2937,
  "\u2581steps": 2938,
  "\u2581Messiah": 2939,
  "\u2581nagtuon": 2940,
  "\u2581emosyonal": 2941,
  "\u2581endure": 2942,
  "\u2581stood": 2943,
  "\u2581key": 2944,
  "\u2581firm": 2945,
  "\u2581utlanan": 2946,
  "\u2581Baal": 2947,
  "\u2581Didto": 2948,
  "\u2581Ephesians": 2949,
  "\u2581pagpaluyo": 2950,
  "\u2581cope": 2951,
  "\u2581kalabotan": 2952,
  "\u2581lasang": 2953,
  "\u2581produkto": 2954,
  "\u2581rain": 2955,
  "\u2581nagpaila": 2956,
  "\u2581appear": 2957,
  "\u2581evening": 2958,
  "\u2581katunga": 2959,
  "\u2581Us": 2960,
  "\u2581adds": 2961,
  "\u2581Di": 2962,
  "ton": 2963,
  "N": 2964,
  "\u2581manner": 2965,
  "\u2581tinukod": 2966,
  "\u00e9": 2967,
  "\u2581kalaglagan": 2968,
  "\u2581battle": 2969,
  "\u2581goal": 2970,
  "\u2581yutan": 2971,
  "\u2581image": 2972,
  "\u2581increased": 2973,
  "\u2581matud": 2974,
  "\u2581neighbor": 2975,
  "\u2581keeping": 2976,
  "\u2581modawat": 2977,
  "\u2581cast": 2978,
  "\u2581cell": 2979,
  "\u2581publication": 2980,
  "\u2581realized": 2981,
  "\u2581Book": 2982,
  "\u2581names": 2983,
  "\u2581pagpang": 2984,
  "1": 2985,
  "\u2581bisita": 2986,
  "\u2581deeply": 2987,
  "\u2581kalamposan": 2988,
  "\u2581kompaniya": 2989,
  "\u2581maarangan": 2990,
  "\u2581bulak": 2991,
  "\u2581makakaplag": 2992,
  "\u2581matapos": 2993,
  "\u2581altar": 2994,
  "\u2581rejoice": 2995,
  "\u2581Tawo": 2996,
  "\u2581expressed": 2997,
  "\u2581late": 2998,
  "\u2581naggikan": 2999,
  "\u2581prophets": 3000,
  "\u2581judge": 3001,
  "\u2581nagpakitag": 3002,
  "\u2581instead": 3003,
  "\u2581treat": 3004,
  "\u2581kanus": 3005,
  "\u2581talagsaon": 3006,
  "\u2581milyon": 3007,
  "\u2581tongue": 3008,
  "\u2581video": 3009,
  "\u2581nagbuhat": 3010,
  "\u2581maanindot": 3011,
  "\u2581destroy": 3012,
  "\u2581ipakita": 3013,
  "\u2581particularly": 3014,
  "\u2581pure": 3015,
  "\u2581household": 3016,
  "\u2581bation": 3017,
  "\u2581mohunong": 3018,
  "\u2581Good": 3019,
  "\u2581eskolar": 3020,
  "\u2581naglangkit": 3021,
  "\u2581recently": 3022,
  "\u2581espada": 3023,
  "\u2581medikal": 3024,
  "\u2581art": 3025,
  "\u2581gathered": 3026,
  "\u258136": 3027,
  "\u2581Marcos": 3028,
  "\u2581Mount": 3029,
  "\u2581police": 3030,
  "\u2581site": 3031,
  "\u2581pagpadapat": 3032,
  "\u2581encourage": 3033,
  "\u2581kamingawan": 3034,
  "\u2581seeing": 3035,
  "\u2581vision": 3036,
  "\u2581Adlaw": 3037,
  "\u2581environment": 3038,
  "\u2581kasadpan": 3039,
  "\u2581meant": 3040,
  "\u2581surely": 3041,
  "\u2581European": 3042,
  "\u2581copy": 3043,
  "\u2581courage": 3044,
  "\u2581gisugdan": 3045,
  "\u2581lana": 3046,
  "\u2581mahibaloan": 3047,
  "\u2581produced": 3048,
  "\u2581abuso": 3049,
  "\u2581ikatulo": 3050,
  "\u2581instruksiyon": 3051,
  "\u2581nagpasiugda": 3052,
  "\u2581Indian": 3053,
  "\u2581hospital": 3054,
  "\u2581panaghiusa": 3055,
  "og": 3056,
  "\u258165": 3057,
  "\u2581island": 3058,
  "\u2581balik": 3059,
  "\u2581brain": 3060,
  "\u2581mosulti": 3061,
  "Y": 3062,
  "\u2581nganha": 3063,
  "\u2581unique": 3064,
  "unsa": 3065,
  "\u2581Its": 3066,
  "\u2581gisaad": 3067,
  "\u2581Remember": 3068,
  "\u2581danger": 3069,
  "\u2581pagkakaron": 3070,
  "\u2581Eden": 3071,
  "\u2581carefully": 3072,
  "\u2581discovered": 3073,
  "\u2581run": 3074,
  "\u2581enter": 3075,
  "\u2581brings": 3076,
  "\u2581hinlo": 3077,
  "\u2581paglutos": 3078,
  "Do": 3079,
  "\u2581katungdanan": 3080,
  "arang": 3081,
  "\u2581ibutang": 3082,
  "\u2581kabayo": 3083,
  "\u2581Hinumdomi": 3084,
  "\u2581mitungha": 3085,
  "\u2581pagsupak": 3086,
  "\u2581stone": 3087,
  "\u2581duolan": 3088,
  "\u2581minyo": 3089,
  "\u2581universe": 3090,
  "\u2581included": 3091,
  "\u2581mapintas": 3092,
  "\u2581Elias": 3093,
  "\u2581nahimutang": 3094,
  "\u2581encouragement": 3095,
  "\u2581nahiangay": 3096,
  "\u2581road": 3097,
  "\u2581Through": 3098,
  "\u2581total": 3099,
  "8": 3100,
  "\u2581authorities": 3101,
  "\u2581forget": 3102,
  "\u2581Paradise": 3103,
  "\u2581nagtrabaho": 3104,
  "\u2581dangerous": 3105,
  "\u2581send": 3106,
  "\u2581ahead": 3107,
  "\u2581hundreds": 3108,
  "\u2581declared": 3109,
  "\u2581mokaon": 3110,
  "\u2581balangay": 3111,
  "\u2581devotion": 3112,
  "\u2581gidawat": 3113,
  "\u2581pagsagubang": 3114,
  "\u2581Christianity": 3115,
  "\u2581midst": 3116,
  "\u2581nakakat": 3117,
  "\u2581basic": 3118,
  "\u2581delivered": 3119,
  "\u2581dwell": 3120,
  "\u2581gamit": 3121,
  "\u2581trials": 3122,
  "\u2581reached": 3123,
  "7": 3124,
  "om": 3125,
  "\u2581Ko": 3126,
  "\u2581nagsulat": 3127,
  "\u2581low": 3128,
  "\u2581pailob": 3129,
  "ive": 3130,
  "\u2581Encyclopedia": 3131,
  "\u2581nagsugo": 3132,
  "\u2581baka": 3133,
  "go": 3134,
  "\u2581Filipos": 3135,
  "\u2581Me": 3136,
  "\u2581Nazi": 3137,
  "\u2581inhabitants": 3138,
  "ck": 3139,
  "\u2581molihok": 3140,
  "\u2581cover": 3141,
  "\u2581polis": 3142,
  "\u2581Kang": 3143,
  "\u2581energy": 3144,
  "\u2581nagtagana": 3145,
  "\u2581tribo": 3146,
  "\u2581drug": 3147,
  "\u2581gitugotan": 3148,
  "\u2581humble": 3149,
  "\u2581nakakaplag": 3150,
  "\u2581none": 3151,
  "\u2581\u201d!": 3152,
  "\u2581aware": 3153,
  "\u2581awhag": 3154,
  "\u2581chief": 3155,
  "\u2581iron": 3156,
  "\u2581approach": 3157,
  "\u2581despite": 3158,
  "\u2581greatly": 3159,
  "\u2581IN": 3160,
  "\u2581plant": 3161,
  "\u2581puti": 3162,
  "\u2581artikulong": 3163,
  "\u2581camp": 3164,
  "\u2581carnero": 3165,
  "\u2581mighty": 3166,
  "\u2581Well": 3167,
  "\u2581nakadungog": 3168,
  "\u2581walo": 3169,
  "\u2581hinuon": 3170,
  "\u2581visited": 3171,
  "ism": 3172,
  "po": 3173,
  "\u2581amount": 3174,
  "\u2581bersikulo": 3175,
  "\u2581cells": 3176,
  "\u2581mine": 3177,
  "\u2581sinultihan": 3178,
  "\u2581continues": 3179,
  "\u2581daan": 3180,
  "\u2581nagpadayag": 3181,
  "\u2581saith": 3182,
  "\u2581writing": 3183,
  "\u2581rock": 3184,
  "\u2581daughters": 3185,
  "\u2581lake": 3186,
  "\u2581luna": 3187,
  "\u2581across": 3188,
  "\u2581haduol": 3189,
  "\u2581red": 3190,
  "ter": 3191,
  "\u2581'": 3192,
  "\u2581Similarly": 3193,
  "\u2581kamong": 3194,
  "\u2581Cor": 3195,
  "\u2581dedicated": 3196,
  "\u2581diwa": 3197,
  "tor": 3198,
  "\u2581International": 3199,
  "\u2581affected": 3200,
  "\u2581News": 3201,
  "\u2581Other": 3202,
  "\u2581motuo": 3203,
  "\u2581points": 3204,
  "ke": 3205,
  "ment": 3206,
  "\u258128.": 3207,
  "\u2581pagtrabaho": 3208,
  "\u2581positibo": 3209,
  "\u2581situwasyon": 3210,
  "\u2581mobiya": 3211,
  "\u2581god": 3212,
  "\u2581step": 3213,
  "\u2581mountains": 3214,
  "\u2581tinubdan": 3215,
  "Let": 3216,
  "\u2581makalilisang": 3217,
  "\u2581teachers": 3218,
  "\u2581becomes": 3219,
  "\u2581Paraiso": 3220,
  "\u2581extreme": 3221,
  "\u2581Asa": 3222,
  "\u2581measure": 3223,
  "\u2581science": 3224,
  "\u2581missionaries": 3225,
  "\u2581deliver": 3226,
  "\u2581dinihogan": 3227,
  "\u2581responsabilidad": 3228,
  "\u2581search": 3229,
  "\u2581Egipto": 3230,
  "\u2581kalibotang": 3231,
  "\u2581malinawon": 3232,
  "\u2581nahadlok": 3233,
  "\u2581skin": 3234,
  "\u2581story": 3235,
  "gugol": 3236,
  "\u2581minister": 3237,
  "\u2581tanlag": 3238,
  "\u2581international": 3239,
  "\u2581probably": 3240,
  "\u2581cost": 3241,
  "\u2581economic": 3242,
  "\u2581imperfect": 3243,
  "\u2581Only": 3244,
  "\u2581afraid": 3245,
  "\u2581kitag": 3246,
  "\u2581lose": 3247,
  "ity": 3248,
  "\u2581experiences": 3249,
  "ca": 3250,
  "\u2581mong": 3251,
  "\u2581wait": 3252,
  "\u2581claim": 3253,
  "\u2581gipadayag": 3254,
  "\u2581lagda": 3255,
  "ish": 3256,
  "\u2581nakapa": 3257,
  "\u2581responsible": 3258,
  "\u2581Should": 3259,
  "\u2581kinasingkasing": 3260,
  "ther": 3261,
  "\u2581gipuy": 3262,
  "\u2581global": 3263,
  "\u2581imo": 3264,
  "\u2581main": 3265,
  "awa": 3266,
  "\u2581military": 3267,
  "\u2581nasabtan": 3268,
  "\u2581Le": 3269,
  "\u2581desires": 3270,
  "\u2581direkta": 3271,
  "\u2581Once": 3272,
  "\u2581minilyon": 3273,
  "\u2581importance": 3274,
  "\u2581sacred": 3275,
  "\u2581segurado": 3276,
  "\u2581sundon": 3277,
  "\u2581display": 3278,
  "\u2581gisultihan": 3279,
  "\u2581concerned": 3280,
  "\u2581doctors": 3281,
  "\u2581Family": 3282,
  "\u2581gihubit": 3283,
  "\u2581larawan": 3284,
  "\u2581Lot": 3285,
  "\u2581Kong": 3286,
  "\u2581agree": 3287,
  "\u2581rise": 3288,
  "tan": 3289,
  "\u2581crime": 3290,
  "\u2581gihunahuna": 3291,
  "\u2581kabukiran": 3292,
  "\u2581pakigsaad": 3293,
  "\u2581tabangan": 3294,
  "ine": 3295,
  "\u2581due": 3296,
  "\u2581persecution": 3297,
  "\u2581reflect": 3298,
  "He": 3299,
  "uban": 3300,
  ".)": 3301,
  "\u2581assigned": 3302,
  "\u2581effects": 3303,
  "\u2581growth": 3304,
  "\u2581ngano": 3305,
  "\u2581relative": 3306,
  "\u2581foot": 3307,
  "Mga": 3308,
  "\u2581Ezekiel": 3309,
  "\u2581Was": 3310,
  "\u2581dedication": 3311,
  "\u2581effective": 3312,
  "\u2581tugotan": 3313,
  "\u2581existence": 3314,
  "This": 3315,
  "\u2581Komosta": 3316,
  "\u2581Here": 3317,
  "\u2581fill": 3318,
  "\u2581nasud": 3319,
  "\u2581company": 3320,
  "\u2581faced": 3321,
  "\u2581wind": 3322,
  "\u2581appeared": 3323,
  "\u2581gatus": 3324,
  "\u2581recognize": 3325,
  "\u2581sacrifices": 3326,
  "\u2581bawtismo": 3327,
  "\u2581cry": 3328,
  "\u2581panulondon": 3329,
  "\u2581average": 3330,
  "\u2581consequences": 3331,
  "\u2581okasyon": 3332,
  "\u2581victims": 3333,
  "\u2581black": 3334,
  "\u2581creatures": 3335,
  "\u2581doktrina": 3336,
  "\u2581madawat": 3337,
  "\u2581tribulation": 3338,
  "\u2581involves": 3339,
  "\u2581Gipakita": 3340,
  "\u2581male": 3341,
  "\u2581mihatag": 3342,
  "\u2581particular": 3343,
  "\u2581remained": 3344,
  "\u258116]": 3345,
  "\u2581hearing": 3346,
  "\u2581race": 3347,
  "\u2581wilderness": 3348,
  "\u2581makapalig": 3349,
  "\u2581nabawtismohan": 3350,
  "ci": 3351,
  "\u2581Mahi": 3352,
  "\u2581gas": 3353,
  "\u2581weight": 3354,
  "\u2581active": 3355,
  "\u2581forest": 3356,
  "\u2581integridad": 3357,
  "\u2581literatura": 3358,
  "\u2581tagdon": 3359,
  "\u2581genuine": 3360,
  "\u2581higher": 3361,
  "\u2581pagsugod": 3362,
  "\u258128,": 3363,
  "\u2581contrast": 3364,
  "\u2581katapusan": 3365,
  "\u2581nagdala": 3366,
  "\u2581pero": 3367,
  "\u2581Katolikong": 3368,
  "\u258128:": 3369,
  "\u2581Don": 3370,
  "\u2581affection": 3371,
  "\u2581event": 3372,
  "\u2581makuha": 3373,
  "\u2581placed": 3374,
  "\u2581kompiyuter": 3375,
  "\u2581metal": 3376,
  "\u2581dila": 3377,
  "\u2581observe": 3378,
  "\u2581sort": 3379,
  "\u2581ganti": 3380,
  "\u2581attack": 3381,
  "\u2581giunsa": 3382,
  "\u2581matinud": 3383,
  "\u2581silot": 3384,
  "AN": 3385,
  "\u2581warm": 3386,
  "F": 3387,
  "\u2581Clearly": 3388,
  "\u2581saved": 3389,
  "\u2581worth": 3390,
  "\u2581bahina": 3391,
  "\u2581limited": 3392,
  "\u2581Habagatan": 3393,
  "\u2581darkness": 3394,
  "\u2581makadungog": 3395,
  "\u2581remains": 3396,
  "\u2581Britanya": 3397,
  "\u2581Pharaoh": 3398,
  "\u2581closer": 3399,
  "\u2581fail": 3400,
  "\u2581makaabot": 3401,
  "tu": 3402,
  "\u258113]": 3403,
  "\u2581dagaya": 3404,
  "\u2581laid": 3405,
  "\u2581sinina": 3406,
  "\u2581alcohol": 3407,
  "\u2581behalf": 3408,
  "\u2581masakiton": 3409,
  "\u258121,": 3410,
  "\u2581libolibo": 3411,
  "\u2581refused": 3412,
  "\u2581subsob": 3413,
  "\u2581Finally": 3414,
  "\u2581Go": 3415,
  "\u2581kanser": 3416,
  "\u2581pagbantay": 3417,
  "\u2581unity": 3418,
  "\u2581Kasadpan": 3419,
  "\u2581Lines": 3420,
  "\u2581North": 3421,
  "\u2581elderly": 3422,
  "\u2581luwas": 3423,
  "\u2581surface": 3424,
  "\u2581top": 3425,
  "\u2581magpasabot": 3426,
  "\u2581misunod": 3427,
  "\u2581espisye": 3428,
  "\u2581inig": 3429,
  "\u2581tears": 3430,
  "\u2581drinking": 3431,
  "Brader": 3432,
  "\u2581Elijah": 3433,
  "\u2581failed": 3434,
  "\u2581publications": 3435,
  "ph": 3436,
  "ling": 3437,
  "\u2581overseer": 3438,
  "\u2581Take": 3439,
  "\u2581nahinumdom": 3440,
  "\u258131.": 3441,
  "\u2581Among": 3442,
  "\u2581pagtubo": 3443,
  "\u2581leading": 3444,
  "\u2581lubnganan": 3445,
  "\u2581nagtumong": 3446,
  "\u2581telepono": 3447,
  "\u2581kaming": 3448,
  "Ayaw": 3449,
  "\u2581kalig": 3450,
  "\u2581lies": 3451,
  "\u2581malikayan": 3452,
  "\u2581delight": 3453,
  "\u2581pagdumot": 3454,
  "\u2581sanga": 3455,
  "\u2581wild": 3456,
  "\u2581writer": 3457,
  "\u2581propeta": 3458,
  "\u2581viewed": 3459,
  "like": 3460,
  "\u2581Spain": 3461,
  "\u2581bilanggoan": 3462,
  "\u2581mibalik": 3463,
  "\u2581Balaan": 3464,
  "\u2581Matikdi": 3465,
  "\u2581violent": 3466,
  "\u2581Kinahanglan": 3467,
  "\u2581appearance": 3468,
  "\u2581bukog": 3469,
  "\u2581factors": 3470,
  "ler": 3471,
  "org": 3472,
  "\u2581gitagna": 3473,
  "\u2581pilo": 3474,
  "\u2581kakulang": 3475,
  "\u2581plants": 3476,
  "\u2581virus": 3477,
  "\u2581Ni": 3478,
  "\u2581grew": 3479,
  "\u2581putt": 3480,
  "\u2581village": 3481,
  "\u2581kaubang": 3482,
  "\u2581Readers": 3483,
  "\u2581houses": 3484,
  "\u2581garden": 3485,
  "\u2581level": 3486,
  "\u2581pagabuhaton": 3487,
  "\u2581talking": 3488,
  "\u2581komunidad": 3489,
  "\u2581magaingon": 3490,
  "\u2581secret": 3491,
  "\u2581generation": 3492,
  "\u2581layo": 3493,
  "\u2581makina": 3494,
  "\u2581River": 3495,
  "and": 3496,
  "\u2581State": 3497,
  "\u2581attended": 3498,
  "\u2581mawad": 3499,
  "\u2581posibleng": 3500,
  "\u2581river": 3501,
  "\u2581conclusion": 3502,
  "\u2581pagkat": 3503,
  "\u2581tuman": 3504,
  "ak": 3505,
  "\u2581kalibotana": 3506,
  "\u2581kasugoan": 3507,
  "\u2581bituon": 3508,
  "\u2581center": 3509,
  "\u258126.": 3510,
  "\u2581gitagana": 3511,
  "\u2581includes": 3512,
  "\u2581imagine": 3513,
  "\u2581serbisyo": 3514,
  "\u2581depression": 3515,
  "\u2581estilo": 3516,
  "\u2581haom": 3517,
  "\u2581practices": 3518,
  "AL": 3519,
  "\u2581examine": 3520,
  "\u2581wide": 3521,
  "\u2581PAGE": 3522,
  "\u2581pagkamaunongon": 3523,
  "\u2581rekord": 3524,
  "\u2581Behold": 3525,
  "\u2581kalangitan": 3526,
  "\u2581reasonable": 3527,
  "\u2581alkoholiko": 3528,
  "\u2581occur": 3529,
  "ian": 3530,
  "ent": 3531,
  "\u2581Judas": 3532,
  "\u2581isigka": 3533,
  "\u2581requires": 3534,
  "ANID": 3535,
  "iya": 3536,
  "\u2581Nangutana": 3537,
  "\u2581hatagan": 3538,
  "\u2581warned": 3539,
  "\u2581designed": 3540,
  "\u2581nagkahulogang": 3541,
  "\u2581planeta": 3542,
  "\u2581guard": 3543,
  "\u2581harm": 3544,
  "\u2581Aduna": 3545,
  "\u2581asking": 3546,
  "\u2581relatives": 3547,
  "rs": 3548,
  "\u2581Magbabasa": 3549,
  "\u2581gifts": 3550,
  "\u2581size": 3551,
  "ob": 3552,
  "\u2581naandang": 3553,
  "\u2581overcome": 3554,
  "\u2581wall": 3555,
  "\u2581Version": 3556,
  "\u2581kahoyng": 3557,
  "\u258142": 3558,
  "\u2581dawaton": 3559,
  "\u2581tumoy": 3560,
  "\u2581internasyonal": 3561,
  "\u2581paglikay": 3562,
  "\u2581goals": 3563,
  "\u2581negative": 3564,
  "\u2581gipili": 3565,
  "\u2581Espiritu": 3566,
  "\u2581specific": 3567,
  "\u2581Nations": 3568,
  "\u2581forms": 3569,
  "\u2581milagro": 3570,
  "\u2581nakahatag": 3571,
  "\u2581pagpasundayag": 3572,
  "\u2581plano": 3573,
  "\u2581April": 3574,
  "\u2581bus": 3575,
  "\u2581imbes": 3576,
  "\u2581listed": 3577,
  "\u2581computer": 3578,
  "\u2581nakasala": 3579,
  "\u2581translation": 3580,
  "\u2581Abril": 3581,
  "\u2581Spanish": 3582,
  "\u2581baybayon": 3583,
  "\u25811993": 3584,
  "\u2581Jonathan": 3585,
  "\u2581improve": 3586,
  "\u2581molampos": 3587,
  "\u2581publishers": 3588,
  "\u25814;": 3589,
  "\u2581beauty": 3590,
  "\u2581illness": 3591,
  "\u2581direksiyon": 3592,
  "\u2581midawat": 3593,
  "\u2581non": 3594,
  "\u2581north": 3595,
  "\u2581rasa": 3596,
  "\u2581sayo": 3597,
  "\u2581Spirit": 3598,
  "\u2581fast": 3599,
  "\u2581gipatay": 3600,
  "\u2581pagpadayon": 3601,
  "\u25811.": 3602,
  "\u2581yutang": 3603,
  "\u2581apod": 3604,
  "\u2581dapita": 3605,
  "\u2581duruha": 3606,
  "\u2581duyog": 3607,
  "\u2581nangagi": 3608,
  "\u2581response": 3609,
  "\u2581cancer": 3610,
  "\u2581developing": 3611,
  "\u2581presented": 3612,
  "men": 3613,
  "\u25815]": 3614,
  "\u2581attending": 3615,
  "\u2581prepare": 3616,
  "ho": 3617,
  "\u2581buhis": 3618,
  "\u2581De": 3619,
  "\u2581mihimo": 3620,
  "\u2581principle": 3621,
  "\u2581personalidad": 3622,
  "\u2581trouble": 3623,
  "\u2581BY": 3624,
  "\u2581Britain": 3625,
  "\u2581Under": 3626,
  "\u2581nagdasig": 3627,
  "\u2581August": 3628,
  "\u2581accounts": 3629,
  "\u2581cold": 3630,
  "\u2581komon": 3631,
  "\u2581maisogon": 3632,
  "What": 3633,
  "When": 3634,
  "\u2581Disyembre": 3635,
  "\u2581banay": 3636,
  "\u2581buy": 3637,
  "\u2581gihigugma": 3638,
  "\u2581train": 3639,
  "mag": 3640,
  "\u2581tren": 3641,
  "\u2581community": 3642,
  "\u2581maghisgot": 3643,
  "\u2581sit": 3644,
  "\u2581malumo": 3645,
  "\u2581trono": 3646,
  "\u2581Grego": 3647,
  "\u2581date": 3648,
  "\u2581discuss": 3649,
  "\u2581expected": 3650,
  "\u2581palihog": 3651,
  "\u2581urged": 3652,
  "\u2581East": 3653,
  "\u2581gihapong": 3654,
  "\u2581kahupayan": 3655,
  "\u2581nakaabot": 3656,
  "\u2581values": 3657,
  "\u25811995": 3658,
  "\u2581korte": 3659,
  "\u2581Naga": 3660,
  "\u2581hinagiban": 3661,
  "\u2581sinsero": 3662,
  "\u2581mibiya": 3663,
  "\u2581association": 3664,
  "\u2581issues": 3665,
  "\u2581sharing": 3666,
  "\u2581sugyot": 3667,
  "\u2581valuable": 3668,
  "\u2581enemy": 3669,
  "\u2581luha": 3670,
  "\u2581ordinaryo": 3671,
  "\u2581truths": 3672,
  "\u2581demonyo": 3673,
  "\u2581gidahom": 3674,
  "\u2581magazines": 3675,
  "\u2581pagpamatuod": 3676,
  "\u2581billion": 3677,
  "\u2581escape": 3678,
  "\u2581cultivate": 3679,
  "\u2581ipa": 3680,
  "\u2581minutes": 3681,
  "\u2581nagahatag": 3682,
  "\u2581biyahe": 3683,
  "\u2581travel": 3684,
  "There": 3685,
  "bag": 3686,
  "\u2581detalye": 3687,
  "\u2581box": 3688,
  "\u2581foreign": 3689,
  "\u2581guide": 3690,
  "\u2581reality": 3691,
  "\u2581Kristiyanidad": 3692,
  "\u2581adto": 3693,
  "\u2581emosyon": 3694,
  "\u25811992": 3695,
  "\u2581300": 3696,
  "\u2581beses": 3697,
  "\u2581Hunahunaa": 3698,
  "\u2581communication": 3699,
  "\u2581kaisipan": 3700,
  "\u2581kinsay": 3701,
  "\u2581nadungog": 3702,
  "\u2581Cain": 3703,
  "\u2581appears": 3704,
  "\u2581belief": 3705,
  "\u2581covered": 3706,
  "\u2581Dagat": 3707,
  "\u2581December": 3708,
  "\u2581nagabuhat": 3709,
  "\u2581punoan": 3710,
  "\u2581quoted": 3711,
  "\u2581request": 3712,
  "\u2581forgive": 3713,
  "\u2581makabenepisyo": 3714,
  "\u2581tuboran": 3715,
  "\u2581Nakita": 3716,
  "\u2581baroganan": 3717,
  "\u2581convinced": 3718,
  "\u2581disiplina": 3719,
  "\u2581letters": 3720,
  "\u2581natapos": 3721,
  "\u2581note": 3722,
  "\u2581pagpanudlo": 3723,
  "\u2581Philippians": 3724,
  "\u2581pleasure": 3725,
  "\u2581uma": 3726,
  "we": 3727,
  "\u2581Un": 3728,
  "\u2581maluwas": 3729,
  "lipay": 3730,
  "\u2581Inglaterra": 3731,
  "\u2581hinumdoman": 3732,
  "\u2581hot": 3733,
  "\u2581mapasalamaton": 3734,
  "\u2581posisyon": 3735,
  "\u2581Hapon": 3736,
  "\u2581Moab": 3737,
  "\u2581divorce": 3738,
  "\u2581kulang": 3739,
  "\u2581merely": 3740,
  "\u2581panaw": 3741,
  "\u2581mosulod": 3742,
  "\u2581nagtawag": 3743,
  "\u2581resurrected": 3744,
  "\u2581sidlakan": 3745,
  "\u2581talan": 3746,
  "\u2581arrangement": 3747,
  "\u2581tuyo": 3748,
  "\u2581vast": 3749,
  "tic": 3750,
  "\u2581Without": 3751,
  "\u2581illustration": 3752,
  "\u2581leksiyon": 3753,
  "lurb": 3754,
  "\u2581Kasugoan": 3755,
  "\u2581damage": 3756,
  "\u2581huge": 3757,
  "\u2581kusganon": 3758,
  "\u2581poverty": 3759,
  "\u258135.": 3760,
  "\u2581Day": 3761,
  "\u2581NGA": 3762,
  "\u2581Robert": 3763,
  "\u2581eternal": 3764,
  "\u2581misulod": 3765,
  "\u2581moduaw": 3766,
  "\u2581Blurb": 3767,
  "\u2581hast": 3768,
  "\u2581mapa": 3769,
  "\u2581panukiduki": 3770,
  "\u2581verse": 3771,
  "yong": 3772,
  "\u2581bed": 3773,
  "\u2581nasayran": 3774,
  "\u2581gatos": 3775,
  "\u2581opposition": 3776,
  "\u2581paper": 3777,
  "ist": 3778,
  "\u2581Canaan": 3779,
  "\u2581committed": 3780,
  "\u2581entered": 3781,
  "\u2581focus": 3782,
  "\u2581hair": 3783,
  "\u2581gihubad": 3784,
  "\u2581tanaman": 3785,
  "\u2581master": 3786,
  "\u2581pagbalik": 3787,
  "\u2581Ebanghelyo": 3788,
  "\u2581mangayo": 3789,
  "\u2581diseases": 3790,
  "\u2581situations": 3791,
  "\u2581V": 3792,
  "\u2581kiling": 3793,
  "\u2581makapadasig": 3794,
  "\u2581misulti": 3795,
  "\u2581sugilanon": 3796,
  "\u2581broken": 3797,
  "\u2581meal": 3798,
  "\u2581wood": 3799,
  "\u2581younger": 3800,
  "\u25812,000": 3801,
  "\u2581describes": 3802,
  "\u258138": 3803,
  "\u2581Aleman": 3804,
  "\u2581aid": 3805,
  "\u2581determinado": 3806,
  "\u258155": 3807,
  "\u2581formed": 3808,
  "\u2581agalon": 3809,
  "\u2581blind": 3810,
  "\u2581nadiskobrehan": 3811,
  "\u2581pagsulod": 3812,
  "\u2581reward": 3813,
  "\u2581komento": 3814,
  "\u2581mangutana": 3815,
  "\u2581wars": 3816,
  "\u2581Michael": 3817,
  "\u2581Parents": 3818,
  "\u2581churches": 3819,
  "\u2581comments": 3820,
  "\u258122:": 3821,
  "\u25816]": 3822,
  "\u2581Colosas": 3823,
  "\u2581forces": 3824,
  "\u2581girls": 3825,
  "\u2581kalisod": 3826,
  "\u2581personally": 3827,
  "baton": 3828,
  "\u258144": 3829,
  "\u2581decades": 3830,
  "\u2581lesson": 3831,
  "\u2581reveal": 3832,
  "\u2581rate": 3833,
  "\u2581Iglesya": 3834,
  "\u2581insekto": 3835,
  "\u2581paglihok": 3836,
  "va": 3837,
  "\u2581depresyon": 3838,
  "\u2581pioneers": 3839,
  "\u2581hurt": 3840,
  "\u2581kemikal": 3841,
  "\u2581patients": 3842,
  "ate": 3843,
  "yo": 3844,
  "\u2581September": 3845,
  "\u2581purposes": 3846,
  "\u2581kinsang": 3847,
  "\u2581Pranses": 3848,
  "\u2581buhok": 3849,
  "\u2581direct": 3850,
  "\u2581linog": 3851,
  "\u2581dato": 3852,
  "\u2581paghupay": 3853,
  "\u2581severe": 3854,
  "per": 3855,
  "\u2581Furthermore": 3856,
  "\u2581Earth": 3857,
  "\u2581Septiyembre": 3858,
  "\u2581nagpadala": 3859,
  "\u2581pagpanalipod": 3860,
  "\u2581careful": 3861,
  "\u2581pagpakigsulti": 3862,
  "\u25811991": 3863,
  "\u2581healthy": 3864,
  "\u2581challenges": 3865,
  "\u2581contains": 3866,
  "\u2581safe": 3867,
  "\u2581student": 3868,
  "\u2581bringing": 3869,
  "\u2581successful": 3870,
  "ru": 3871,
  "\u258121]": 3872,
  "\u2581Land": 3873,
  "\u2581Really": 3874,
  "\u2581hagit": 3875,
  "\u2581pagpabili": 3876,
  "\u2581sakayan": 3877,
  "ir": 3878,
  "\u2581pagkawalay": 3879,
  "\u2581minutos": 3880,
  "ki": 3881,
  "\u258114;": 3882,
  "\u2581Pangutana": 3883,
  "\u2581opening": 3884,
  "\u2581survive": 3885,
  "\u2581West": 3886,
  "\u2581gayong": 3887,
  "\u2581region": 3888,
  "\u2581variety": 3889,
  "\u2581Mother": 3890,
  "\u2581gilalang": 3891,
  "\u2581dekada": 3892,
  "\u2581oo": 3893,
  "\u2581peoples": 3894,
  "\u2581ulohang": 3895,
  "\u2581adres": 3896,
  "\u2581correct": 3897,
  "\u2581moresulta": 3898,
  "\u2581agi": 3899,
  "\u2581exist": 3900,
  "\u2581panagway": 3901,
  "\u2581shepherd": 3902,
  "\u2581unahan": 3903,
  "\u2581uses": 3904,
  "abut": 3905,
  "\u2581Aw": 3906,
  "\u2581sought": 3907,
  "\u2581commandments": 3908,
  "\u2581throne": 3909,
  "\u2581acceptable": 3910,
  "\u2581makabatog": 3911,
  "\u2581500": 3912,
  "\u2581compassion": 3913,
  "\u2581pagpamalandong": 3914,
  "\u2581Hinungdanon": 3915,
  "\u2581balhibo": 3916,
  "\u2581extent": 3917,
  "\u2581magbantay": 3918,
  "\u2581understood": 3919,
  "\u2581estimated": 3920,
  "\u2581inheritance": 3921,
  "\u2581proseso": 3922,
  "\u2581trabahante": 3923,
  "\u258110;": 3924,
  "\u2581aksidente": 3925,
  "\u2581color": 3926,
  "\u2581masakit": 3927,
  "\u2581Translation": 3928,
  "\u2581busy": 3929,
  "\u2581indicate": 3930,
  "\u2581preached": 3931,
  "\u2581Al": 3932,
  "\u2581ark": 3933,
  "\u2581bodies": 3934,
  "\u2581iglesya": 3935,
  "\u2581enable": 3936,
  "\u2581loyalty": 3937,
  "\u2581makab": 3938,
  "\u2581nagpabilin": 3939,
  "\u2581ray": 3940,
  "\u2581welcome": 3941,
  "\u2581Nimo": 3942,
  "\u2581kainit": 3943,
  "\u2581nakaila": 3944,
  "\u2581Ha": 3945,
  "\u2581brader": 3946,
  "\u2581dry": 3947,
  "\u2581maluloton": 3948,
  "\u2581Enero": 3949,
  "\u2581encouraging": 3950,
  "\u2581makapahimuot": 3951,
  "\u2581Every": 3952,
  "\u2581Levihanon": 3953,
  "\u2581count": 3954,
  "\u2581mouyon": 3955,
  "\u258116;": 3956,
  "\u2581Kamo": 3957,
  "\u2581Pagkadako": 3958,
  "\u2581anxiety": 3959,
  "\u2581helpful": 3960,
  "\u2581makapalipay": 3961,
  "\u2581pagluwas": 3962,
  "\u25818]": 3963,
  "\u2581ihalas": 3964,
  "\u2581kabtangan": 3965,
  "\u2581likewise": 3966,
  "\u2581matarung": 3967,
  "\u2581vaca": 3968,
  "\u2581unyay": 3969,
  "\u25812000": 3970,
  "\u2581Sometimes": 3971,
  "\u2581nagtinguha": 3972,
  "\u2581Hitler": 3973,
  "\u2581nameligro": 3974,
  "\u2581pahayag": 3975,
  "\u2581associated": 3976,
  "\u2581minds": 3977,
  "\u2581ngipon": 3978,
  "\u258127.": 3979,
  "\u2581pangutanaha": 3980,
  "\u2581proyekto": 3981,
  "\u2581advantage": 3982,
  "\u2581atua": 3983,
  "\u2581katahom": 3984,
  "Na": 3985,
  "\u2581British": 3986,
  "\u2581Organization": 3987,
  "\u2581wish": 3988,
  "\u2581grateful": 3989,
  "\u2581humility": 3990,
  "\u2581masuso": 3991,
  "sh": 3992,
  "\u2581kanding": 3993,
  "\u2581religions": 3994,
  "\u2581telebisyon": 3995,
  "\u2581writes": 3996,
  "\u2581pagwali": 3997,
  "ie": 3998,
  "\u2581aside": 3999,
  "\u2581drawn": 4000,
  "\u2581impressed": 4001,
  "\u2581publikong": 4002,
  "My": 4003,
  "\u2581gibasa": 4004,
  "\u2581gipahinabo": 4005,
  "\u2581gipasukad": 4006,
  "\u2581listening": 4007,
  "\u258130.": 4008,
  "\u2581conversation": 4009,
  "\u2581discussion": 4010,
  "\u2581leaves": 4011,
  "\u2581pulos": 4012,
  "\u2581Duha": 4013,
  "\u2581High": 4014,
  "\u2581scientific": 4015,
  "\u2581statement": 4016,
  "\u2581Help": 4017,
  "\u2581Judea": 4018,
  "\u2581mitambong": 4019,
  "\u2581referred": 4020,
  "all": 4021,
  "\u2581Agosto": 4022,
  "\u2581Being": 4023,
  "\u2581January": 4024,
  "\u2581obedience": 4025,
  "\u2581struck": 4026,
  "\u2581studied": 4027,
  "\u2581wealth": 4028,
  "\u2581Samaria": 4029,
  "\u2581Sunday": 4030,
  "\u2581maangkon": 4031,
  "\u2581pakig": 4032,
  "\u2581leaving": 4033,
  "\u2581motultol": 4034,
  "\u2581pagtultol": 4035,
  "\u2581supak": 4036,
  "\u2581adults": 4037,
  "\u2581construction": 4038,
  "\u2581hugaw": 4039,
  "\u2581klaro": 4040,
  "\u2581treated": 4041,
  "\u2581nagpasundayag": 4042,
  "\u2581pagtawag": 4043,
  "\u2581obedient": 4044,
  "\u2581financial": 4045,
  "\u2581nagtukod": 4046,
  "\u2581secular": 4047,
  "\u2581troubled": 4048,
  "\u2581Bukid": 4049,
  "\u2581Make": 4050,
  "\u2581caring": 4051,
  "\u2581endurance": 4052,
  "\u2581tradisyon": 4053,
  "\u2581dust": 4054,
  "\u2581iro": 4055,
  "\u2581saksi": 4056,
  "\u2581sudlanan": 4057,
  "\u2581Body": 4058,
  "\u2581ehersisyo": 4059,
  "\u2581isigkamagtutuo": 4060,
  "\u2581presenteng": 4061,
  "\u2581itaas": 4062,
  "\u2581negatibo": 4063,
  "\u2581Pipila": 4064,
  "\u2581south": 4065,
  "\u2581space": 4066,
  "\u2581gipasiugda": 4067,
  "one": 4068,
  "\u2581March": 4069,
  "\u2581kalalangan": 4070,
  "\u2581kapatagan": 4071,
  "\u2581moving": 4072,
  "\u2581solusyon": 4073,
  "\u2581Benjamin": 4074,
  "\u2581join": 4075,
  "\u2581katagbawan": 4076,
  "\u2581sincere": 4077,
  "\u2581thereof": 4078,
  "\u2581ad": 4079,
  "\u2581ekonomiya": 4080,
  "\u2581prospect": 4081,
  "\u2581riches": 4082,
  "ber": 4083,
  "\u2581kahon": 4084,
  "\u2581pursue": 4085,
  "\u2581October": 4086,
  "\u2581migamit": 4087,
  "\u2581prophecies": 4088,
  "\u2581essential": 4089,
  "\u2581organized": 4090,
  "\u2581puloy": 4091,
  "\u2581maghimo": 4092,
  "\u2581territory": 4093,
  "alagad": 4094,
  "\u258141": 4095,
  "\u2581Oktubre": 4096,
  "\u2581Sidlakan": 4097,
  "\u2581gidapit": 4098,
  "\u2581harvest": 4099,
  "\u2581miuswag": 4100,
  "\u2581nanga": 4101,
  "\u2581stars": 4102,
  "\u2581tribe": 4103,
  "\u2581Galacia": 4104,
  "\u2581patience": 4105,
  "\u2581distress": 4106,
  "\u2581gidili": 4107,
  "\u2581mere": 4108,
  "\u2581pod": 4109,
  "\u2581hain": 4110,
  "\u2581hunahunaon": 4111,
  "\u2581mailhan": 4112,
  "\u2581mouswag": 4113,
  "\u2581likayan": 4114,
  "Gi": 4115,
  "mp": 4116,
  "\u2581HIV": 4117,
  "\u2581ears": 4118,
  "\u2581gidasig": 4119,
  "\u2581gipamulong": 4120,
  "\u2581kangitngit": 4121,
  "\u2581tuo": 4122,
  "\u2581yelo": 4123,
  "\u2581Lawas": 4124,
  "\u2581itom": 4125,
  "\u2581nagpatin": 4126,
  "\u2581panaghisgot": 4127,
  "\u2581raise": 4128,
  "\u2581San": 4129,
  "\u2581putli": 4130,
  "\u2581teoriya": 4131,
  "ran": 4132,
  "\u2581Abel": 4133,
  "\u2581development": 4134,
  "que": 4135,
  "\u2581consideration": 4136,
  "\u2581forgiveness": 4137,
  "\u2581nabalaka": 4138,
  "\u2581capital": 4139,
  "\u2581natad": 4140,
  "\u2581masayod": 4141,
  "siya": 4142,
  "\u2581Espanya": 4143,
  "\u2581concluded": 4144,
  "\u2581female": 4145,
  "\u2581thank": 4146,
  "\u2581pinasuk": 4147,
  "\u2581thine": 4148,
  "\u2581California": 4149,
  "\u2581Mayo": 4150,
  "\u2581brosyur": 4151,
  "\u2581forced": 4152,
  "\u2581komunikasyon": 4153,
  "\u2581Kataposan": 4154,
  "\u2581del": 4155,
  "\u2581easier": 4156,
  "\u2581mosalig": 4157,
  "\u2581nagpabiling": 4158,
  "\u2581Exodus": 4159,
  "\u2581Paris": 4160,
  "\u2581nagsunod": 4161,
  "ant": 4162,
  "\u258133.": 4163,
  "\u2581Ngadto": 4164,
  "\u2581national": 4165,
  "\u2581grown": 4166,
  "\u2581nagtabang": 4167,
  "\u2581trained": 4168,
  "\u2581Christmas": 4169,
  "\u2581Journal": 4170,
  "\u2581June": 4171,
  "\u2581Tubag": 4172,
  "tion": 4173,
  "\u2581Biblical": 4174,
  "\u2581applied": 4175,
  "\u2581difference": 4176,
  "\u25811,000": 4177,
  "\u2581friendship": 4178,
  "\u2581kahuyangan": 4179,
  "\u2581kinabubut": 4180,
  "\u2581makaiikag": 4181,
  "\u2581waiting": 4182,
  "\u2581worse": 4183,
  "\u258123,": 4184,
  "\u2581George": 4185,
  "\u2581mohimo": 4186,
  "\u2581surbi": 4187,
  "\u2581disciple": 4188,
  "\u2581mausab": 4189,
  "\u2581meat": 4190,
  "\u2581pagbiya": 4191,
  "\u2581setting": 4192,
  "\u2581style": 4193,
  "\u2581July": 4194,
  "\u2581assembly": 4195,
  "\u2581instruction": 4196,
  "\u2581magtuon": 4197,
  "\u2581Marso": 4198,
  "\u2581besti": 4199,
  "\u2581iga": 4200,
  "\u2581nakasabot": 4201,
  "\u2581neighbors": 4202,
  "\u2581panalipod": 4203,
  "\u2581causing": 4204,
  "\u2581clothing": 4205,
  "\u2581hate": 4206,
  "\u2581occurred": 4207,
  "\u2581planet": 4208,
  "\u2581evident": 4209,
  "\u2581fulfill": 4210,
  "\u2581presensiya": 4211,
  "\u2581Faith": 4212,
  "\u2581Lain": 4213,
  "\u2581researchers": 4214,
  "\u2581ruler": 4215,
  "\u2581tun": 4216,
  "ku": 4217,
  "\u2581Hulyo": 4218,
  "\u2581joined": 4219,
  "\u2581kakabos": 4220,
  "\u2581walked": 4221,
  "\u2581Kanus": 4222,
  "\u2581William": 4223,
  "\u2581emotions": 4224,
  "\u2581seriously": 4225,
  "\u2581balo": 4226,
  "\u2581discussed": 4227,
  "\u2581heat": 4228,
  "\u2581highly": 4229,
  "\u2581journey": 4230,
  "\u2581kapuslanan": 4231,
  "\u2581komosta": 4232,
  "mer": 4233,
  "\u2581Labaw": 4234,
  "\u2581Memorial": 4235,
  "\u2581Tesalonica": 4236,
  "\u2581dahon": 4237,
  "\u2581translated": 4238,
  "\u2581Questions": 4239,
  "\u2581below": 4240,
  "\u2581bilyon": 4241,
  "\u2581politika": 4242,
  "\u2581sulogoon": 4243,
  "\u2581television": 4244,
  "V": 4245,
  "\u2581Colossians": 4246,
  "\u2581bless": 4247,
  "\u2581miduaw": 4248,
  "\u2581pre": 4249,
  "\u2581supply": 4250,
  "\u2581Inay": 4251,
  "\u2581ginabuhat": 4252,
  "\u2581list": 4253,
  "\u2581wickedness": 4254,
  "tro": 4255,
  "za": 4256,
  "\u2581masinugtanon": 4257,
  "\u258148": 4258,
  "\u2581Has": 4259,
  "\u2581Russia": 4260,
  "\u2581aberids": 4261,
  "\u2581gatas": 4262,
  "\u2581tambok": 4263,
  "\u2581kotse": 4264,
  "\u2581moment": 4265,
  "\u2581numero": 4266,
  "\u2581opinyon": 4267,
  "\u2581stopped": 4268,
  "\u2581gipangutana": 4269,
  "\u2581nearby": 4270,
  "\u2581Charles": 4271,
  "\u2581mature": 4272,
  "Ma": 4273,
  "\u2581offspring": 4274,
  "\u2581tungora": 4275,
  "\u2581binuhatan": 4276,
  "\u2581ruin": 4277,
  "ron": 4278,
  "\u2581Deuteronomio": 4279,
  "\u2581clothes": 4280,
  "\u2581kalasangan": 4281,
  "\u2581kuhaon": 4282,
  "\u2581likod": 4283,
  "\u2581paglahutay": 4284,
  "\u2581perform": 4285,
  "paniid": 4286,
  "\u2581UN": 4287,
  "\u2581obtain": 4288,
  "\u2581rehiyon": 4289,
  "\u2581stones": 4290,
  "ies": 4291,
  "lin": 4292,
  "mu": 4293,
  "\u258139": 4294,
  "\u2581amo": 4295,
  "\u2581carrying": 4296,
  "\u2581misangpot": 4297,
  "\u2581Hunyo": 4298,
  "\u2581pinuy": 4299,
  "\u25813;": 4300,
  "\u2581Deuteronomy": 4301,
  "\u2581dalawaton": 4302,
  "\u2581facts": 4303,
  "\u2581nagapanaw": 4304,
  "\u2581nagka": 4305,
  "\u2581pako": 4306,
  "\u2581sovereignty": 4307,
  "\u2581dungog": 4308,
  "\u2581released": 4309,
  "ver": 4310,
  "\u2581accomplish": 4311,
  "\u2581beloved": 4312,
  "\u2581klima": 4313,
  "\u2581soldiers": 4314,
  "\u2581teaches": 4315,
  "\u2581abundance": 4316,
  "\u2581describe": 4317,
  "\u2581slaves": 4318,
  "\u2581co": 4319,
  "\u2581f": 4320,
  "\u2581largest": 4321,
  "\u2581nine": 4322,
  "\u2581baylo": 4323,
  "\u2581won": 4324,
  "Siya": 4325,
  "ff": 4326,
  "\u2581Work": 4327,
  "\u2581governments": 4328,
  "\u2581magdugay": 4329,
  "\u2581medisina": 4330,
  "\u2581potential": 4331,
  "\u2581promote": 4332,
  "\u2581Galatians": 4333,
  "\u2581strive": 4334,
  "\u2581utang": 4335,
  "\u2581culture": 4336,
  "land": 4337,
  "\u25811997": 4338,
  "\u2581famous": 4339,
  "\u2581impossible": 4340,
  "\u258112]": 4341,
  "\u2581Dan": 4342,
  "\u2581Hav": 4343,
  "\u2581nakaingon": 4344,
  "\u2581powers": 4345,
  "\u2581recognized": 4346,
  "\u2581surprise": 4347,
  "\u2581pamaagi": 4348,
  "\u2581soil": 4349,
  "\u2581views": 4350,
  "\u2581nawala": 4351,
  "\u2581pagpuyo": 4352,
  "\u2581pamatasan": 4353,
  "\u2581panganod": 4354,
  "adto": 4355,
  "tingad": 4356,
  "\u2581Institute": 4357,
  "\u2581TO": 4358,
  "\u2581ill": 4359,
  "\u2581Exodo": 4360,
  "\u2581wrath": 4361,
  "\u2581majority": 4362,
  "\u2581yes": 4363,
  "\u2581chose": 4364,
  "\u2581complex": 4365,
  "\u2581ship": 4366,
  "\u2581isigkatawo": 4367,
  "\u2581nangayo": 4368,
  "\u2581unclean": 4369,
  "\u258117;": 4370,
  "\u2581Ana": 4371,
  "\u2581Island": 4372,
  "\u2581confident": 4373,
  "\u2581demons": 4374,
  "\u2581evidently": 4375,
  "\u2581hatred": 4376,
  "\u2581kalapasan": 4377,
  "\u2581magbabasa": 4378,
  "\u2581pagano": 4379,
  "ja": 4380,
  "\u2581doesn": 4381,
  "\u2581sat": 4382,
  "\u2581Soviet": 4383,
  "\u2581luyo": 4384,
  "\u2581manifest": 4385,
  "\u2581paglabay": 4386,
  "\u2581pride": 4387,
  "for": 4388,
  "\u2581Ikasubo": 4389,
  "\u2581beneficial": 4390,
  "\u2581dark": 4391,
  "\u2581pieces": 4392,
  "\u2581sake": 4393,
  "\u2581subjects": 4394,
  "\u2581boys": 4395,
  "\u2581damgo": 4396,
  "\u2581mapadapat": 4397,
  "\u2581smoking": 4398,
  "\u2581street": 4399,
  "ab": 4400,
  "wa": 4401,
  "\u2581circuit": 4402,
  "\u2581indicates": 4403,
  "\u2581maugmad": 4404,
  "\u2581sold": 4405,
  "responsibilities": 4406,
  "\u2581require": 4407,
  "\u2581unable": 4408,
  "\u2581react": 4409,
  "\u258125,": 4410,
  "\u2581abog": 4411,
  "\u2581bird": 4412,
  "\u2581caught": 4413,
  "\u2581puliki": 4414,
  "\u2581trade": 4415,
  "\u2581walls": 4416,
  "\u2581zeal": 4417,
  "\u2581History": 4418,
  "\u2581constantly": 4419,
  "\u2581Pharisees": 4420,
  "\u2581burnt": 4421,
  "\u2581hinay": 4422,
  "\u2581Testament": 4423,
  "ub": 4424,
  "\u258143": 4425,
  "\u2581Pasko": 4426,
  "\u2581kan": 4427,
  "\u2581length": 4428,
  "\u2581napakyas": 4429,
  "\u2581offerings": 4430,
  "hu": 4431,
  "\u2581Kasulatanhong": 4432,
  "\u2581agianan": 4433,
  "\u2581decide": 4434,
  "\u2581kiliran": 4435,
  "\u2581pattern": 4436,
  "\u2581solution": 4437,
  "\u2581entertainment": 4438,
  "\u2581factor": 4439,
  "\u2581inspirado": 4440,
  "\u2581trip": 4441,
  "\u25811999": 4442,
  "\u2581assist": 4443,
  "\u2581ideas": 4444,
  "\u2581masaligon": 4445,
  "\u2581sirkito": 4446,
  "\u2581Look": 4447,
  "\u2581estado": 4448,
  "\u2581kuta": 4449,
  "et": 4450,
  "ty": 4451,
  "\u2581Imbes": 4452,
  "\u2581Kanunay": 4453,
  "\u2581feed": 4454,
  "\u2581increasing": 4455,
  "\u2581matabangan": 4456,
  "\u2581natuman": 4457,
  "\u2581praying": 4458,
  "\u2581thanks": 4459,
  "tugyan": 4460,
  "\u2581Sarah": 4461,
  "\u2581contrary": 4462,
  "\u2581gipabilhan": 4463,
  "\u2581Both": 4464,
  "\u2581giatubang": 4465,
  "\u2581magmalipayon": 4466,
  "\u2581media": 4467,
  "\u2581pagpamati": 4468,
  "\u2581performed": 4469,
  "\u2581tinudlo": 4470,
  "\u2581Tim": 4471,
  "\u2581apart": 4472,
  "\u2581responsibilidad": 4473,
  "\u258132.": 4474,
  "\u2581kasukwahi": 4475,
  "\u2581official": 4476,
  "\u2581shared": 4477,
  "\u2581base": 4478,
  "\u2581joyful": 4479,
  "\u2581grado": 4480,
  "apektar": 4481,
  "out": 4482,
  "\u2581kriminal": 4483,
  "\u2581naamgohan": 4484,
  "\u2581telling": 4485,
  "%": 4486,
  "0,000": 4487,
  "\u2581kanilang": 4488,
  "\u2581makaingon": 4489,
  "\u2581nakigsulti": 4490,
  "\u2581pagtubag": 4491,
  "\u2581providing": 4492,
  "\u2581receiving": 4493,
  "\u2581Hinaot": 4494,
  "\u2581Out": 4495,
  "\u2581create": 4496,
  "\u2581habits": 4497,
  "\u2581misaysay": 4498,
  "\u2581nagsaad": 4499,
  "\u2581responded": 4500,
  "\u2581speaks": 4501,
  "\u2581winter": 4502,
  "\u2581mihangyo": 4503,
  "\u2581pasundayag": 4504,
  "\u2581superior": 4505,
  "\u2581tagana": 4506,
  "\u2581tindahan": 4507,
  "\u2581amping": 4508,
  "\u2581dealing": 4509,
  "\u2581immoral": 4510,
  "\u2581song": 4511,
  "\u2581touch": 4512,
  "\u2581unit": 4513,
  "\u2581adult": 4514,
  "\u2581binilanggo": 4515,
  "\u2581reveals": 4516,
  "\u2581China": 4517,
  "\u2581ginamit": 4518,
  "\u2581lying": 4519,
  "\u2581pagsundog": 4520,
  "\u2581credit": 4521,
  "\u2581pelikula": 4522,
  "\u2581puthaw": 4523,
  "\u2581tagda": 4524,
  "\u2581worshipers": 4525,
  "\u2581magpakitag": 4526,
  "\u2581150": 4527,
  "\u2581balance": 4528,
  "\u2581handle": 4529,
  "\u2581lower": 4530,
  "\u2581products": 4531,
  "\u2581sky": 4532,
  "\u2581conclude": 4533,
  "\u2581paid": 4534,
  "\u2581sambingay": 4535,
  "Kini": 4536,
  "\u2581operasyon": 4537,
  "ok": 4538,
  "\u2581fat": 4539,
  "\u2581slow": 4540,
  "\u2581green": 4541,
  "\u2581mapainubsanon": 4542,
  "\u2581skills": 4543,
  "\u2581Ephraim": 4544,
  "\u2581Mat": 4545,
  "\u2581atmosphere": 4546,
  "\u2581closely": 4547,
  "\u2581immorality": 4548,
  "\u2581sagradong": 4549,
  "up": 4550,
  "\u2581Pamilya": 4551,
  "\u2581angry": 4552,
  "\u2581madaot": 4553,
  "\u2581nabuhi": 4554,
  "\u2581Am": 4555,
  "\u2581compared": 4556,
  "\u2581rejected": 4557,
  "\u2581removed": 4558,
  "\u25811998": 4559,
  "\u2581tribes": 4560,
  "\u2581approval": 4561,
  "\u2581misulay": 4562,
  "\u2581pagpabiling": 4563,
  "\u2581refers": 4564,
  "\u2581tiyan": 4565,
  "\u2581Armageddon": 4566,
  "\u2581nakaamgo": 4567,
  "\u25811970": 4568,
  "\u2581assured": 4569,
  "\u2581daplin": 4570,
  "\u2581directly": 4571,
  "\u2581generally": 4572,
  "\u2581paglalang": 4573,
  "\u2581reign": 4574,
  "\u2581trial": 4575,
  "\u2581husbands": 4576,
  "\u2581makaapektar": 4577,
  "\u2581Cristo": 4578,
  "\u2581calling": 4579,
  "\u2581pagsulbad": 4580,
  "\u2581possess": 4581,
  "\u2581constant": 4582,
  "\u2581pagdala": 4583,
  "\u2581tiny": 4584,
  "\u25811914": 4585,
  "\u2581notice": 4586,
  "\u2581rules": 4587,
  "\u2581bearing": 4588,
  "\u2581ear": 4589,
  "\u2581gitudloan": 4590,
  "\u2581komplikado": 4591,
  "\u2581magasina": 4592,
  "\u2581pagpauswag": 4593,
  "\u2581smoke": 4594,
  "Wala": 4595,
  "\u2581distance": 4596,
  "\u2581gang": 4597,
  "\u2581kapit": 4598,
  "\u2581mibalhin": 4599,
  "\u2581milk": 4600,
  "\u2581namatikdan": 4601,
  "\u2581phone": 4602,
  "\u2581Nobyembre": 4603,
  "\u2581miangkon": 4604,
  "\u2581heed": 4605,
  "\u2581kauswagan": 4606,
  "\u2581lit": 4607,
  "\u2581motambong": 4608,
  "\u2581pagkama": 4609,
  "\u2581price": 4610,
  "\u2581remarkable": 4611,
  "\u2581granted": 4612,
  "\u2581kapanahonan": 4613,
  "\u2581mitaho": 4614,
  "\u2581remove": 4615,
  "\u2581survey": 4616,
  "\u25811996": 4617,
  "\u2581Gikinahanglan": 4618,
  "\u2581goodness": 4619,
  "\u2581imoral": 4620,
  "\u2581naghubit": 4621,
  "\u2581Levites": 4622,
  "\u2581Simon": 4623,
  "\u2581Watching": 4624,
  "\u2581buhata": 4625,
  "\u2581ended": 4626,
  "\u2581herself": 4627,
  "\u2581summer": 4628,
  "ary": 4629,
  "\u2581Govern": 4630,
  "\u2581demonstrate": 4631,
  "\u2581dios": 4632,
  "\u2581identify": 4633,
  "\u2581magpakita": 4634,
  "\u2581makasalig": 4635,
  "\u2581nagdumala": 4636,
  "\u2581siglong": 4637,
  "\u2581mamiminaw": 4638,
  "\u2581teknolohiya": 4639,
  "\u2581temperatura": 4640,
  "\u2581mangita": 4641,
  "\u2581walog": 4642,
  "\u2581Absalom": 4643,
  "\u2581copies": 4644,
  "\u2581discreet": 4645,
  "\u2581gate": 4646,
  "\u2581gula": 4647,
  "\u2581kagikan": 4648,
  "\u2581pagkamatay": 4649,
  "\u2581principe": 4650,
  "\u2581Ra": 4651,
  "\u2581entitled": 4652,
  "\u2581gipasabot": 4653,
  "\u2581hangyo": 4654,
  "\u2581paghubad": 4655,
  "bu": 4656,
  "\u2581boluntaryo": 4657,
  "\u2581kasaypanan": 4658,
  "\u2581nagpaabot": 4659,
  "\u2581signs": 4660,
  "\u2581Ben": 4661,
  "\u2581Could": 4662,
  "\u2581Nagamando": 4663,
  "\u2581baye": 4664,
  "\u2581satisfaction": 4665,
  "\u2581tabernacle": 4666,
  "\u2581victim": 4667,
  "ampo": 4668,
  "bilin": 4669,
  "\u258146": 4670,
  "\u2581overseers": 4671,
  "ge": 4672,
  "\u2581Nigeria": 4673,
  "\u2581chance": 4674,
  "\u2581mail": 4675,
  "\u2581144,000": 4676,
  "\u2581balanced": 4677,
  "\u2581motibo": 4678,
  "\u2581numbers": 4679,
  "\u2581Western": 4680,
  "\u2581brochure": 4681,
  "\u2581gather": 4682,
  "\u2581migula": 4683,
  "\u2581papa": 4684,
  "ww": 4685,
  "\u258120]": 4686,
  "\u2581Esau": 4687,
  "\u2581Imagine": 4688,
  "\u2581Italy": 4689,
  "\u2581Surely": 4690,
  "\u2581finding": 4691,
  "\u2581loves": 4692,
  "\u2581pagkatulog": 4693,
  "\u2581tinuohan": 4694,
  "Tan": 4695,
  "\u25819]": 4696,
  "\u2581nagtagna": 4697,
  "\u2581upright": 4698,
  "\u2581heads": 4699,
  "\u2581makahimog": 4700,
  "\u2581middle": 4701,
  "\u2581separate": 4702,
  "ilalom": 4703,
  "\u2581historyano": 4704,
  "\u2581mosugod": 4705,
  "\u2581pointed": 4706,
  "\u2581sekular": 4707,
  "\u2581traveled": 4708,
  "\u258126,": 4709,
  "\u2581kadalanan": 4710,
  "\u2581leads": 4711,
  "\u2581struggle": 4712,
  "hag": 4713,
  "\u2581add": 4714,
  "\u2581hinimo": 4715,
  "\u2581pagkabatan": 4716,
  "\u2581resist": 4717,
  "\u2581souls": 4718,
  "\u2581AWAKE": 4719,
  "\u2581inhustisya": 4720,
  "\u2581magkinabuhi": 4721,
  "\u2581sickness": 4722,
  "ous": 4723,
  "\u2581Dad": 4724,
  "\u2581November": 4725,
  "\u2581kapakyasan": 4726,
  "\u2581lasting": 4727,
  "\u2581masiboton": 4728,
  "ER": 4729,
  "wi": 4730,
  "\u2581apohan": 4731,
  "\u2581aspects": 4732,
  "\u2581details": 4733,
  "pp": 4734,
  "\u2581east": 4735,
  "\u2581imoralidad": 4736,
  "\u2581season": 4737,
  "\u2581straight": 4738,
  "\u2581suddenly": 4739,
  "patim": 4740,
  "tra": 4741,
  "\u2581Peace": 4742,
  "\u2581dalunggan": 4743,
  "\u2581ice": 4744,
  "\u2581labor": 4745,
  "\u2581safety": 4746,
  "\u2581Filistehanon": 4747,
  "\u2581conflict": 4748,
  "\u2581modangat": 4749,
  "\u2581nahiuyon": 4750,
  "\u2581rights": 4751,
  "\u2581PAGMATA": 4752,
  "\u2581directed": 4753,
  "\u2581lamesa": 4754,
  "\u2581rulers": 4755,
  "\u2581tingtugnaw": 4756,
  "away": 4757,
  "\u2581Tig": 4758,
  "\u2581atop": 4759,
  "\u2581feels": 4760,
  "\u2581salt": 4761,
  "\u2581Malipayon": 4762,
  "\u2581Matt": 4763,
  "\u2581store": 4764,
  "\u2581touched": 4765,
  "\u2581KA": 4766,
  "\u2581Memoryal": 4767,
  "\u2581determine": 4768,
  "\u2581experts": 4769,
  "\u2581invitation": 4770,
  "\u2581laki": 4771,
  "\u2581mihunong": 4772,
  "\u2581outstanding": 4773,
  "\u2581traditional": 4774,
  "\u2581Dihay": 4775,
  "\u2581apparently": 4776,
  "\u2581espesipikong": 4777,
  "\u2581pagkamaayo": 4778,
  "\u2581refuge": 4779,
  "\u2581sees": 4780,
  "\u2581team": 4781,
  "Pag": 4782,
  "\u25811980": 4783,
  "\u2581Hunahuna": 4784,
  "\u2581Kadaghanan": 4785,
  "\u2581arte": 4786,
  "\u2581dream": 4787,
  "\u2581gibiyaan": 4788,
  "\u2581motubo": 4789,
  "\u2581recalls": 4790,
  "kon": 4791,
  "matinud": 4792,
  "\u2581insight": 4793,
  "\u2581klero": 4794,
  "\u2581linibo": 4795,
  "\u2581Science": 4796,
  "\u2581asembliya": 4797,
  "\u2581isipon": 4798,
  "\u2581located": 4799,
  "\u2581mabangis": 4800,
  "\u2581round": 4801,
  "\u2581terms": 4802,
  "\u2581Note": 4803,
  "\u2581honest": 4804,
  "\u2581natukod": 4805,
  "\u2581Sal": 4806,
  "\u2581Web": 4807,
  "\u2581burned": 4808,
  "\u2581reduce": 4809,
  "\u2581significant": 4810,
  "\u2581exactly": 4811,
  "\u2581kalikopan": 4812,
  "\u2581mipahayag": 4813,
  "\u2581moalagad": 4814,
  "\u2581symptoms": 4815,
  "una": 4816,
  "\u2581`": 4817,
  "\u2581ha": 4818,
  "\u2581haligi": 4819,
  "\u2581lalom": 4820,
  "\u2581useful": 4821,
  "\u2581giila": 4822,
  "\u258175": 4823,
  "\u2581connection": 4824,
  "\u2581finished": 4825,
  "\u2581mahisama": 4826,
  "\u2581uuma": 4827,
  "sala": 4828,
  "\u2581Beth": 4829,
  "\u2581Pariseo": 4830,
  "\u2581limitasyon": 4831,
  "\u2581naglaom": 4832,
  "\u2581pagtagana": 4833,
  "\u2581posibilidad": 4834,
  "\u2581weak": 4835,
  "\u2581SI": 4836,
  "\u2581additional": 4837,
  "\u2581disenyo": 4838,
  "\u2581mahanaw": 4839,
  "\u2581simtoma": 4840,
  "\u2581threat": 4841,
  "\u2581visitors": 4842,
  "\u2581YOU": 4843,
  "\u2581charge": 4844,
  "\u2581kalidad": 4845,
  "\u2581played": 4846,
  "\u2581sinned": 4847,
  "\u2581tuiga": 4848,
  "\u2581Zion": 4849,
  "\u2581drive": 4850,
  "\u2581identified": 4851,
  "\u2581makamatay": 4852,
  "\u2581moon": 4853,
  "\u2581table": 4854,
  "but": 4855,
  "by": 4856,
  "Unsa": 4857,
  "\u2581makapugong": 4858,
  "\u2581simbolo": 4859,
  "\u2581inner": 4860,
  "wala": 4861,
  "\u2581Columbia": 4862,
  "\u2581determinasyon": 4863,
  "\u2581kahanas": 4864,
  "\u2581makitang": 4865,
  "\u2581motan": 4866,
  "ayo": 4867,
  "\u2581Please": 4868,
  "\u2581apresasyon": 4869,
  "\u2581glad": 4870,
  "\u2581ig": 4871,
  "\u2581imposible": 4872,
  "\u2581malamposong": 4873,
  "\u2581nating": 4874,
  "\u2581pagpalig": 4875,
  "\u2581itugot": 4876,
  "\u2581kantidad": 4877,
  "\u2581nagkadaiya": 4878,
  "\u2581witnessing": 4879,
  "\u2581Ar": 4880,
  "\u2581Italya": 4881,
  "\u2581bound": 4882,
  "\u2581critical": 4883,
  "\u2581pagtino": 4884,
  "\u2581\u201c[": 4885,
  "\u2581attendance": 4886,
  "\u2581listahan": 4887,
  "\u2581ministers": 4888,
  "\u2581mothers": 4889,
  "\u2581(1)": 4890,
  "\u2581Ministry": 4891,
  "\u2581hinapos": 4892,
  "ingnan": 4893,
  "\u2581Hudiyong": 4894,
  "\u2581cried": 4895,
  "\u2581fields": 4896,
  "\u2581k": 4897,
  "\u2581katubigan": 4898,
  "\u2581mitabang": 4899,
  "\u2581opportunities": 4900,
  "\u2581pinili": 4901,
  "\u2581Amerikano": 4902,
  "\u2581Give": 4903,
  "\u2581kalumo": 4904,
  "\u2581nausab": 4905,
  "\u2581surprised": 4906,
  "uk": 4907,
  "\u2581Li": 4908,
  "\u2581clergy": 4909,
  "\u2581espirituwalidad": 4910,
  "\u2581expressions": 4911,
  "\u2581failure": 4912,
  "\u2581glorious": 4913,
  "\u2581matul": 4914,
  "\u2581pagkontrolar": 4915,
  "\u25812001": 4916,
  "\u2581floor": 4917,
  "\u2581gihimong": 4918,
  "\u2581nanganak": 4919,
  "\u2581pagmahal": 4920,
  "res": 4921,
  "\u2581makigsulti": 4922,
  "\u2581siyentipikanhon": 4923,
  "su": 4924,
  "\u2581Gospel": 4925,
  "\u2581contribute": 4926,
  "\u2581cross": 4927,
  "\u2581degree": 4928,
  "\u2581keeps": 4929,
  "\u2581pagpahinungod": 4930,
  "\u2581release": 4931,
  "\u2581tender": 4932,
  "\u2581wear": 4933,
  "ina": 4934,
  "\u2581Eli": 4935,
  "\u2581arms": 4936,
  "\u2581background": 4937,
  "\u2581multitude": 4938,
  "\u2581pagkahan": 4939,
  "\u258119]": 4940,
  "\u2581Gibati": 4941,
  "\u2581Lakip": 4942,
  "\u2581belong": 4943,
  "\u2581nagtambag": 4944,
  "\u2581tend": 4945,
  "ted": 4946,
  "\u2581Russian": 4947,
  "\u2581appreciated": 4948,
  "\u2581pareho": 4949,
  "\u2581pleasant": 4950,
  "\u2581puwede": 4951,
  "\u2581tubo": 4952,
  "\u2581diet": 4953,
  "\u2581methods": 4954,
  "tin": 4955,
  "\u2581Often": 4956,
  "\u2581card": 4957,
  "\u2581fourth": 4958,
  "\u2581freely": 4959,
  "\u2581fruitage": 4960,
  "\u2581hinigugma": 4961,
  "\u2581pagkasoberano": 4962,
  "\u2581project": 4963,
  "\u2581task": 4964,
  "\u2581temporaryo": 4965,
  "\u2581weapons": 4966,
  "les": 4967,
  "\u25813,000": 4968,
  "\u2581Prov": 4969,
  "\u2581higayona": 4970,
  "\u2581la": 4971,
  "\u2581nagmando": 4972,
  "\u2581resulted": 4973,
  "All": 4974,
  "\u2581Think": 4975,
  "\u2581armies": 4976,
  "\u2581gilapdon": 4977,
  "\u2581opposite": 4978,
  "\u2581sekreto": 4979,
  "OR": 4980,
  "\u2581400": 4981,
  "\u2581Japanese": 4982,
  "\u2581Star": 4983,
  "\u2581indicated": 4984,
  "\u2581padulong": 4985,
  "\u2581Para": 4986,
  "\u2581gikutlo": 4987,
  "\u2581Come": 4988,
  "\u2581Regard": 4989,
  "\u2581assistance": 4990,
  "\u2581kinamaayohang": 4991,
  "\u2581linya": 4992,
  "\u2581magminyo": 4993,
  "\u2581nagahimo": 4994,
  "\u2581pleased": 4995,
  "\u2581diborsiyo": 4996,
  "\u2581enerhiya": 4997,
  "\u2581listened": 4998,
  "\u2581makaayo": 4999,
  "\u2581Kapin": 5000,
  "\u2581Pagtuo": 5001,
  "\u2581Red": 5002,
  "\u2581Trinidad": 5003,
  "\u2581conventions": 5004,
  "\u2581debosyon": 5005,
  "\u2581happens": 5006,
  "\u2581marvelous": 5007,
  "\u2581reference": 5008,
  "\u2581services": 5009,
  "jw": 5010,
  "\u2581Moscow": 5011,
  "\u2581claimed": 5012,
  "\u2581liso": 5013,
  "\u2581mabalaka": 5014,
  "\u2581northern": 5015,
  "\u2581numerous": 5016,
  "\u2581successfully": 5017,
  "For": 5018,
  "atod": 5019,
  "\u2581Union": 5020,
  "\u2581kawatan": 5021,
  "\u2581patyon": 5022,
  "v": 5023,
  "\u2581Learn": 5024,
  "\u2581accompany": 5025,
  "\u2581burden": 5026,
  "\u2581dangers": 5027,
  "\u2581mangitag": 5028,
  "ner": 5029,
  "\u2581Joel": 5030,
  "\u2581asin": 5031,
  "\u2581bisti": 5032,
  "\u2581buta": 5033,
  "\u2581hugot": 5034,
  "\u2581mahugaw": 5035,
  "\u2581sinful": 5036,
  "\u2581strengthened": 5037,
  "ns": 5038,
  "\u25811919": 5039,
  "\u2581Nagtuo": 5040,
  "\u2581himoa": 5041,
  "\u2581masuko": 5042,
  "\u2581prisohan": 5043,
  "\u2581doctrine": 5044,
  "\u2581ebolusyon": 5045,
  "\u2581gihangyo": 5046,
  "\u2581gilay": 5047,
  "\u2581inhabited": 5048,
  "\u2581paglungtad": 5049,
  "\u2581root": 5050,
  "\u2581disaster": 5051,
  "\u2581gipanalanginan": 5052,
  "\u2581alagianan": 5053,
  "\u2581border": 5054,
  "\u2581content": 5055,
  "\u2581peaceful": 5056,
  "\u2581remnant": 5057,
  "\u2581tinuig": 5058,
  "60": 5059,
  "\u2581Answer": 5060,
  "\u2581Britannica": 5061,
  "\u2581exposed": 5062,
  "\u2581surgery": 5063,
  "\u2581gagmay": 5064,
  "\u2581market": 5065,
  "\u2581ran": 5066,
  "How": 5067,
  "\u25811988": 5068,
  "\u2581GI": 5069,
  "\u2581disorder": 5070,
  "\u2581excellent": 5071,
  "\u2581gisalikway": 5072,
  "\u2581replied": 5073,
  "\u2581salog": 5074,
  "\u2581fearing": 5075,
  "\u2581images": 5076,
  "\u2581karne": 5077,
  "\u2581milagroso": 5078,
  "\u2581Sara": 5079,
  "\u2581pagan": 5080,
  "\u2581physically": 5081,
  "\u2581bond": 5082,
  "\u2581conducted": 5083,
  "\u2581contain": 5084,
  "\u2581industriya": 5085,
  "\u2581ipadala": 5086,
  "\u2581kasiglohan": 5087,
  "\u2581sad": 5088,
  "\u2581waste": 5089,
  "\u2581memory": 5090,
  "\u2581onon": 5091,
  "\u2581remaining": 5092,
  "\u2581timaan": 5093,
  "sunod": 5094,
  "\u2581agreed": 5095,
  "\u2581babag": 5096,
  "\u2581familiar": 5097,
  "\u2581paglaglag": 5098,
  "\u2581tax": 5099,
  "W": 5100,
  "sis": 5101,
  "\u2581broke": 5102,
  "\u2581declare": 5103,
  "\u2581gene": 5104,
  "\u2581limitado": 5105,
  "\u2581pagsaulog": 5106,
  "\u2581treasure": 5107,
  "\u2581turning": 5108,
  "\u2581kas": 5109,
  "\u2581mainiton": 5110,
  "\u2581pagtungha": 5111,
  "\u2581radio": 5112,
  "ap": 5113,
  "pat": 5114,
  "\u2581Matag": 5115,
  "\u2581ikaupat": 5116,
  "\u2581mapailobon": 5117,
  "\u2581succeed": 5118,
  "\u2581Ne": 5119,
  "\u2581Whe": 5120,
  "\u2581bukton": 5121,
  "\u2581giawhag": 5122,
  "\u2581magka": 5123,
  "\u2581magpahinabo": 5124,
  "\u2581nagsangyaw": 5125,
  "\u2581pictures": 5126,
  "\u2581running": 5127,
  "\u2581tinuyo": 5128,
  "\u2581united": 5129,
  "our": 5130,
  "\u25813]": 5131,
  "\u2581Ro": 5132,
  "\u2581foundation": 5133,
  "\u2581magabuhat": 5134,
  "atted": 5135,
  "let": 5136,
  "\u2581Se": 5137,
  "\u2581gipasundayag": 5138,
  "\u2581mihukom": 5139,
  "\u2581napuno": 5140,
  "\u2581yano": 5141,
  "\u2581blue": 5142,
  "\u2581companions": 5143,
  "\u2581makalingaw": 5144,
  "\u2581Sobyet": 5145,
  "\u2581arise": 5146,
  "\u2581nahiusa": 5147,
  "\u2581relates": 5148,
  "\u2581tract": 5149,
  "sen": 5150,
  "\u2581Kings": 5151,
  "\u2581endeavor": 5152,
  "\u2581pagpangayo": 5153,
  "lan": 5154,
  "\u2581Almighty": 5155,
  "\u2581OF": 5156,
  "\u2581worthy": 5157,
  "\u2581naghulat": 5158,
  "\u2581primary": 5159,
  "\u2581visiting": 5160,
  "\u2581Thank": 5161,
  "\u2581commandment": 5162,
  "\u2581kinatas": 5163,
  "\u2581streets": 5164,
  "\u2581temptation": 5165,
  "ING": 5166,
  "\u2581Paulo": 5167,
  "\u2581design": 5168,
  "\u2581moduol": 5169,
  "\u2581widow": 5170,
  "They": 5171,
  "\u2581fit": 5172,
  "\u2581officials": 5173,
  "\u2581arranged": 5174,
  "\u2581bones": 5175,
  "\u2581gibanabana": 5176,
  "\u2581items": 5177,
  "\u2581ought": 5178,
  "ized": 5179,
  "\u2581Hangtod": 5180,
  "\u2581damha": 5181,
  "\u2581konsensiya": 5182,
  "\u2581medicine": 5183,
  "\u2581vessels": 5184,
  "\u2581Eventually": 5185,
  "\u2581letrato": 5186,
  "\u2581nasuko": 5187,
  "\u2581princes": 5188,
  "\u2581sangkap": 5189,
  "io": 5190,
  "\u2581Says": 5191,
  "\u2581bangko": 5192,
  "\u2581except": 5193,
  "\u2581mention": 5194,
  "\u2581Netherlands": 5195,
  "\u2581Salamat": 5196,
  "\u2581couples": 5197,
  "\u2581involve": 5198,
  "\u2581pinansiyal": 5199,
  "\u2581burning": 5200,
  "\u2581petsa": 5201,
  "\u2581plan": 5202,
  "\u2581twenty": 5203,
  "las": 5204,
  "\u2581Bill": 5205,
  "\u2581boat": 5206,
  "\u2581games": 5207,
  "\u2581gika": 5208,
  "\u2581kaugmaon": 5209,
  "\u2581magahatag": 5210,
  "\u2581Philistines": 5211,
  "\u2581Russell": 5212,
  "\u2581accomplished": 5213,
  "\u2581nasinati": 5214,
  "\u2581pangutan": 5215,
  "\u2581path": 5216,
  "\u2581Death": 5217,
  "\u2581begins": 5218,
  "\u2581inanay": 5219,
  "\u2581pagbutang": 5220,
  "\u2581Ahab": 5221,
  "\u2581Gresya": 5222,
  "\u2581harmful": 5223,
  "\u2581kindly": 5224,
  "\u2581suicide": 5225,
  "\u2581afterward": 5226,
  "\u2581deeds": 5227,
  "\u2581kostumbre": 5228,
  "\u2581mismong": 5229,
  "\u2581pagduhaduha": 5230,
  "\u2581pagkahadlok": 5231,
  "\u2581scholars": 5232,
  "\u2581trabahoan": 5233,
  "\u258111]": 5234,
  "\u2581bugnaw": 5235,
  "\u2581claims": 5236,
  "\u2581kamig": 5237,
  "\u2581mabination": 5238,
  "\u2581miduol": 5239,
  "\u258172": 5240,
  "\u2581lumba": 5241,
  "\u2581\u201c\u2018": 5242,
  "ista": 5243,
  "\u258129,": 5244,
  "\u2581gradually": 5245,
  "\u2581ipadapat": 5246,
  "\u2581kababayen": 5247,
  "\u2581Segurado": 5248,
  "\u2581ganahan": 5249,
  "\u2581host": 5250,
  "\u2581magpuyo": 5251,
  "!\"": 5252,
  "con": 5253,
  "vo": 5254,
  "\u25814]": 5255,
  "\u2581balas": 5256,
  "\u2581batid": 5257,
  "\u2581interesting": 5258,
  "\u2581militar": 5259,
  "\u2581paggawi": 5260,
  "\u2581politikanhong": 5261,
  "\u2581scriptures": 5262,
  "dan": 5263,
  "nce": 5264,
  "\u2581range": 5265,
  "\u2581suggestions": 5266,
  "\u2581Lo": 5267,
  "\u2581balatian": 5268,
  "\u2581masinati": 5269,
  "\u2581mobuhat": 5270,
  "\u2581propesor": 5271,
  "\u2581rose": 5272,
  "\u2581sports": 5273,
  "\u2581Court": 5274,
  "\u2581instrumento": 5275,
  "\u2581model": 5276,
  "\u2581private": 5277,
  "\u2581proof": 5278,
  "\u2581tapos": 5279,
  "\u2581Never": 5280,
  "\u2581compare": 5281,
  "\u2581dress": 5282,
  "\u2581eksakto": 5283,
  "\u2581nagtigom": 5284,
  "\u2581occasions": 5285,
  "\u2581apartment": 5286,
  "\u2581kagabhion": 5287,
  "\u2581panuigon": 5288,
  "\u2581speed": 5289,
  "\u2581February": 5290,
  "\u2581Handurawa": 5291,
  "\u2581bagyo": 5292,
  "\u2581cares": 5293,
  "\u2581ginganlan": 5294,
  "\u2581nagakahitabo": 5295,
  "\u2581nagsugyot": 5296,
  "\u2581scale": 5297,
  "\u2581bayad": 5298,
  "\u2581ipahayag": 5299,
  "\u2581offers": 5300,
  "\u2581snow": 5301,
  "\u2581tentasyon": 5302,
  "\u2581Likewise": 5303,
  "\u2581Philip": 5304,
  "\u2581WHO": 5305,
  "\u2581ingnon": 5306,
  "\u2581relationships": 5307,
  "\u2581zealous": 5308,
  "\u2581innocent": 5309,
  "\u2581lessons": 5310,
  "\u2581pagbiyahe": 5311,
  "\u2581pagpit": 5312,
  "\u2581pribado": 5313,
  "\u2581reaching": 5314,
  "\u2581sand": 5315,
  "\u2581kadasig": 5316,
  "\u2581trigo": 5317,
  "Jesus": 5318,
  "zi": 5319,
  "\u2581Pebrero": 5320,
  "\u2581fresh": 5321,
  "\u2581ilis": 5322,
  "\u2581isalikway": 5323,
  "\u2581panapton": 5324,
  "\u2581satisfying": 5325,
  "kamasinugtanon": 5326,
  "\u25811914,": 5327,
  "\u2581applying": 5328,
  "\u2581exists": 5329,
  "\u2581islands": 5330,
  "\u2581salabotan": 5331,
  "\u2581verses": 5332,
  "qui": 5333,
  "tultol": 5334,
  "\u2581abandoned": 5335,
  "\u2581illustrate": 5336,
  "\u2581moagi": 5337,
  "\u2581naandan": 5338,
  "\u2581properly": 5339,
  "As": 5340,
  "\u2581Abram": 5341,
  "\u2581Amos": 5342,
  "\u2581Encyclop\u00e6dia": 5343,
  "\u2581Protestante": 5344,
  "\u2581Way": 5345,
  "\u2581divided": 5346,
  "\u2581garbo": 5347,
  "\u2581nadaot": 5348,
  "\u2581sitting": 5349,
  "ful": 5350,
  "\u2581Israelite": 5351,
  "\u2581kuwarto": 5352,
  "\u2581plans": 5353,
  "\u2581refer": 5354,
  "\u2581refuse": 5355,
  "\u2581resources": 5356,
  "\u2581scene": 5357,
  "\u2581takna": 5358,
  "\u2581Jonas": 5359,
  "\u2581nagpasalig": 5360,
  "\u2581nagtanyag": 5361,
  "\u2581president": 5362,
  "\u2581rag": 5363,
  "\u25811945": 5364,
  "\u2581lovers": 5365,
  "\u2581Association": 5366,
  "\u2581dwelling": 5367,
  "\u2581gitabangan": 5368,
  "\u2581kahinguhaan": 5369,
  "\u2581secure": 5370,
  "\u2581siyam": 5371,
  "age": 5372,
  "\u2581drayber": 5373,
  "\u2581himsog": 5374,
  "\u2581mahal": 5375,
  "\u2581makausa": 5376,
  "\u2581nailhang": 5377,
  "\u2581palandongon": 5378,
  "\u2581presidente": 5379,
  "\u2581sunodsunod": 5380,
  "\u2581unusual": 5381,
  "\u2581engage": 5382,
  "\u2581hakog": 5383,
  "\u2581looks": 5384,
  "\u2581naghawas": 5385,
  "\u2581paghinumdom": 5386,
  "\u2581weather": 5387,
  "\u2581\u25c6": 5388,
  "ld": 5389,
  "non": 5390,
  "\u2581Daily": 5391,
  "\u2581Get": 5392,
  "\u2581Hataas": 5393,
  "\u2581allows": 5394,
  "\u2581arose": 5395,
  "\u2581flowers": 5396,
  "\u2581gilangkoban": 5397,
  "\u2581obligasyon": 5398,
  "\u2581obra": 5399,
  "\u2581Nathan": 5400,
  "\u2581eksperyensiya": 5401,
  "\u2581establish": 5402,
  "\u2581gahi": 5403,
  "\u2581kasibot": 5404,
  "\u2581sabton": 5405,
  "EN": 5406,
  "\u2581ani": 5407,
  "\u2581itlog": 5408,
  "\u2581kadaogan": 5409,
  "\u2581mosanong": 5410,
  "\u2581nabasa": 5411,
  "\u2581nagdalag": 5412,
  "\u2581pagtratar": 5413,
  "\u2581sumbanan": 5414,
  "ite": 5415,
  "\u2581Greece": 5416,
  "\u2581attempt": 5417,
  "\u2581gipatin": 5418,
  "\u2581madungog": 5419,
  "\u2581substansiya": 5420,
  "\u2581worshippers": 5421,
  "ley": 5422,
  "\u25812]": 5423,
  "\u2581Nisan": 5424,
  "\u2581dealings": 5425,
  "\u2581dear": 5426,
  "\u2581kapungot": 5427,
  "\u2581kasarangan": 5428,
  "\u2581lungag": 5429,
  "\u2581pagpatin": 5430,
  "der": 5431,
  "\u2581119": 5432,
  "\u2581Palihog": 5433,
  "\u2581Whatever": 5434,
  "\u2581hunahunaa": 5435,
  "\u2581mahimayaon": 5436,
  "\u2581mahuptan": 5437,
  "\u2581suggests": 5438,
  "\u2581Lu": 5439,
  "\u2581atmospera": 5440,
  "\u2581awtor": 5441,
  "\u2581cloud": 5442,
  "\u2581kanatog": 5443,
  "\u2581restored": 5444,
  "\u2581tons": 5445,
  "\u2581wedding": 5446,
  "ON": 5447,
  "\u00e1": 5448,
  "\u2581alas": 5449,
  "\u2581attacks": 5450,
  "\u2581kaunoran": 5451,
  "\u2581prophetic": 5452,
  "j": 5453,
  "sulat": 5454,
  "\u2581Gigamit": 5455,
  "\u2581coast": 5456,
  "\u2581considering": 5457,
  "\u2581persona": 5458,
  "\u2581totolo": 5459,
  "ismo": 5460,
  "\u2581Basin": 5461,
  "\u2581Ta": 5462,
  "\u2581kagul": 5463,
  "\u2581lord": 5464,
  "\u2581lumad": 5465,
  "\u2581marry": 5466,
  "\u2581ngabil": 5467,
  "\u2581opisina": 5468,
  "\u2581pasidungog": 5469,
  "\u2581shepherds": 5470,
  "\u2581sundogon": 5471,
  "\u25812002": 5472,
  "\u2581Dominggo": 5473,
  "\u2581En": 5474,
  "\u2581makasulti": 5475,
  "\u2581paghalad": 5476,
  "\u2581stayed": 5477,
  "hatag": 5478,
  "\u2581Maingon": 5479,
  "\u2581kapilian": 5480,
  "\u2581lips": 5481,
  "\u2581mass": 5482,
  "\u2581observes": 5483,
  "\u2581reject": 5484,
  "\u2581southern": 5485,
  "\u2581ugaling": 5486,
  "chi": 5487,
  "\u2581Men": 5488,
  "\u2581abundant": 5489,
  "\u2581carbon": 5490,
  "\u2581dinasig": 5491,
  "\u2581faithfully": 5492,
  "\u2581intense": 5493,
  "\u2581possession": 5494,
  "\u2581wondered": 5495,
  "sta": 5496,
  "\u2581Car": 5497,
  "\u2581Mosaic": 5498,
  "\u2581Sadly": 5499,
  "\u2581Teach": 5500,
  "\u2581Thomas": 5501,
  "\u2581conscious": 5502,
  "\u2581difficulties": 5503,
  "\u2581flee": 5504,
  "\u2581gitanyag": 5505,
  "\u2581instructions": 5506,
  "\u2581natawhan": 5507,
  "\u2581portion": 5508,
  "\u2581reaction": 5509,
  "\u2581Ingles": 5510,
  "\u2581customs": 5511,
  "\u2581depekto": 5512,
  "\u2581mini": 5513,
  "\u2581nagdepende": 5514,
  "\u2581valley": 5515,
  "\u2581wipe": 5516,
  "\u2581noticed": 5517,
  "\u2581technology": 5518,
  "\u2581Henry": 5519,
  "\u2581gubot": 5520,
  "\u2581undeserved": 5521,
  "dasig": 5522,
  "tapos": 5523,
  "\u2581Co": 5524,
  "\u2581bungbong": 5525,
  "\u2581fled": 5526,
  "\u2581gatosan": 5527,
  "\u2581impiyerno": 5528,
  "\u2581ligid": 5529,
  "\u2581mabug": 5530,
  "\u2581nangita": 5531,
  "\u2581taste": 5532,
  "\u2581basta": 5533,
  "\u2581hinoon": 5534,
  "\u2581ilalum": 5535,
  "\u2581intereses": 5536,
  "\u2581professor": 5537,
  "\u2581kanataran": 5538,
  "\u2581lanaw": 5539,
  "\u2581pagpasaylo": 5540,
  "\u2581standard": 5541,
  "\u2581faces": 5542,
  "\u2581maha": 5543,
  "\u2581mahunahunaon": 5544,
  "\u2581nanginahanglan": 5545,
  "\u2581timailhan": 5546,
  "\u2581drama": 5547,
  "\u2581frequently": 5548,
  "\u2581harianon": 5549,
  "\u2581pabor": 5550,
  "\u2581pagbuntog": 5551,
  "\u2581pasaylo": 5552,
  "\u2581Lake": 5553,
  "\u2581advance": 5554,
  "\u2581makaarang": 5555,
  "\u2581mistakes": 5556,
  "\u2581mosulay": 5557,
  "\u2581nagagikan": 5558,
  "ure": 5559,
  "ze": 5560,
  "\u2581(2)": 5561,
  "\u2581Gihimo": 5562,
  "\u2581grain": 5563,
  "\u2581nagpunting": 5564,
  "day": 5565,
  "\u2581BIBLE": 5566,
  "\u2581dala": 5567,
  "\u2581fallen": 5568,
  "\u2581kinds": 5569,
  "\u2581responsable": 5570,
  "ten": 5571,
  "\u2581Thessalonians": 5572,
  "\u2581Toronto": 5573,
  "\u2581Visit": 5574,
  "\u2581access": 5575,
  "\u2581ipasabot": 5576,
  "\u2581kilid": 5577,
  "\u2581painful": 5578,
  "\u2581possibly": 5579,
  "nd": 5580,
  "\u2581Chinese": 5581,
  "\u2581Joab": 5582,
  "\u2581beast": 5583,
  "\u2581empty": 5584,
  "\u2581spring": 5585,
  "\u2581witnesses": 5586,
  "bal": 5587,
  "kaagom": 5588,
  "\u2581Hezekiah": 5589,
  "\u2581Religion": 5590,
  "\u2581Republic": 5591,
  "\u2581X": 5592,
  "\u2581makasulod": 5593,
  "\u2581nukleyar": 5594,
  "\u2581quick": 5595,
  "\u2581resolve": 5596,
  "\u258127,": 5597,
  "\u258151": 5598,
  "\u2581Report": 5599,
  "\u2581WHAT": 5600,
  "\u2581audience": 5601,
  "\u2581determination": 5602,
  "\u2581firmly": 5603,
  "\u2581gets": 5604,
  "\u2581magapuyo": 5605,
  "\u2581mark": 5606,
  "\u2581pangatarongan": 5607,
  "\u2581reminded": 5608,
  "\u2581samad": 5609,
  "\u2581tent": 5610,
  "\u2581types": 5611,
  "\u2581affairs": 5612,
  "\u2581generations": 5613,
  "\u2581grief": 5614,
  "\u2581mamatikdan": 5615,
  "\u2581nagdako": 5616,
  "\u2581origin": 5617,
  "\u2581pagsakit": 5618,
  "Kamo": 5619,
  "impluwensiyahan": 5620,
  "\u2581piece": 5621,
  "\u2581serves": 5622,
  "em": 5623,
  "\u2581Nahinumdom": 5624,
  "\u2581drew": 5625,
  "\u2581tem": 5626,
  "\u2581Diin": 5627,
  "\u2581Gugma": 5628,
  "\u2581Sinai": 5629,
  "\u2581pagpakiglabot": 5630,
  "\u2581requirements": 5631,
  "\u2581serye": 5632,
  "\u2581Paraon": 5633,
  "\u2581Professor": 5634,
  "\u2581paghikog": 5635,
  "\u2581propesyonal": 5636,
  "\u2581quit": 5637,
  "\u2581systems": 5638,
  "hisgot": 5639,
  "isip": 5640,
  "of": 5641,
  "\u2581completed": 5642,
  "\u2581kasangkapan": 5643,
  "\u2581movement": 5644,
  "\u2581stake": 5645,
  "\u2581Besides": 5646,
  "\u2581Students": 5647,
  "\u2581hidden": 5648,
  "\u2581kahinungdanon": 5649,
  "\u2581katumbas": 5650,
  "\u2581nagpaluyo": 5651,
  "\u2581stick": 5652,
  "\u2581terrible": 5653,
  "\u2581Dinhi": 5654,
  "\u2581Jehu": 5655,
  "\u2581Kaayo": 5656,
  "\u2581calm": 5657,
  "\u2581commit": 5658,
  "\u2581cup": 5659,
  "\u2581gipaila": 5660,
  "\u2581kahay": 5661,
  "\u2581paninugdan": 5662,
  "\u2581suplay": 5663,
  "\u2581threatened": 5664,
  "\u258134.": 5665,
  "\u2581Switzerland": 5666,
  "\u2581edaran": 5667,
  "\u2581evolution": 5668,
  "\u2581habit": 5669,
  "\u2581impact": 5670,
  "\u2581kadautan": 5671,
  "\u2581literally": 5672,
  "\u2581lungsoranon": 5673,
  "\u2581makaon": 5674,
  "\u2581makasala": 5675,
  "\u2581pagkawala": 5676,
  "dakong": 5677,
  "\u2581Estado": 5678,
  "\u2581communicate": 5679,
  "\u2581pagbalhin": 5680,
  "\u2581pounds": 5681,
  "\u2581punishment": 5682,
  "\u2581radyo": 5683,
  "\u2581rivers": 5684,
  "\u2581widely": 5685,
  "\u258130,": 5686,
  "\u2581Persia": 5687,
  "\u2581dalaga": 5688,
  "\u2581hunong": 5689,
  "\u2581katigulangan": 5690,
  "\u2581manuskrito": 5691,
  "\u2581pagkab": 5692,
  "\u2581pumoluyo": 5693,
  "\u2581tang": 5694,
  "\u2581tugoti": 5695,
  "AR": 5696,
  "Walay": 5697,
  "\u258124;": 5698,
  "\u2581Fear": 5699,
  "\u2581Korea": 5700,
  "\u2581buildings": 5701,
  "\u2581gipang": 5702,
  "\u2581introduced": 5703,
  "\u2581kadagaya": 5704,
  "\u2581makakitag": 5705,
  "\u2581writings": 5706,
  "\u2581grass": 5707,
  "\u2581involving": 5708,
  "\u2581larger": 5709,
  "\u2581nahisulat": 5710,
  "\u2581playing": 5711,
  "\u2581suga": 5712,
  "\u2581tobacco": 5713,
  "\u2581Kamatuoran": 5714,
  "\u2581hayan": 5715,
  "\u2581kagaw": 5716,
  "\u2581schools": 5717,
  "J": 5718,
  "\u258119;": 5719,
  "\u2581Bang": 5720,
  "\u2581Ezequiel": 5721,
  "\u2581magulang": 5722,
  "\u2581nagagamit": 5723,
  "\u2581obtained": 5724,
  "\u2581paghunong": 5725,
  "\u2581provisions": 5726,
  "\u2581routine": 5727,
  "\u2581spite": 5728,
  "bug": 5729,
  "gen": 5730,
  "\u2581Pin": 5731,
  "\u2581balong": 5732,
  "\u2581kompleto": 5733,
  "\u2581makapatungha": 5734,
  "\u2581nuclear": 5735,
  "\u2581paghubit": 5736,
  "\u2581paril": 5737,
  "\u2581sosyal": 5738,
  "\u2581unless": 5739,
  "\u2581watching": 5740,
  "kong": 5741,
  "\u2581Ex": 5742,
  "\u2581Heb": 5743,
  "\u2581Jonah": 5744,
  "\u2581Maoy": 5745,
  "\u2581forests": 5746,
  "\u2581fruits": 5747,
  "\u2581giasoy": 5748,
  "\u2581grave": 5749,
  "\u2581kalibutan": 5750,
  "\u2581mahinulsolon": 5751,
  "\u2581miampo": 5752,
  "\u2581principal": 5753,
  "\u2581render": 5754,
  "com": 5755,
  "\u2581100,000": 5756,
  "\u258149": 5757,
  "\u2581Judio": 5758,
  "\u2581Su": 5759,
  "\u2581anxious": 5760,
  "\u2581fighting": 5761,
  "\u2581kahayopan": 5762,
  "\u2581mapakyas": 5763,
  "\u2581midangat": 5764,
  "\u2581mild": 5765,
  "\u2581Kanato": 5766,
  "\u2581career": 5767,
  "\u2581mapaubsanon": 5768,
  "\u2581concerns": 5769,
  "\u2581degrees": 5770,
  "\u2581twice": 5771,
  "apan": 5772,
  "ila": 5773,
  "\u2581Further": 5774,
  "\u2581direktor": 5775,
  "\u2581healing": 5776,
  "\u2581heartfelt": 5777,
  "\u2581holding": 5778,
  "\u2581kasulatan": 5779,
  "\u2581kilometro": 5780,
  "\u2581pagmatuto": 5781,
  "\u2581spouse": 5782,
  "\u2581stories": 5783,
  "\u2581warns": 5784,
  "\u2581Rusya": 5785,
  "\u2581Scientist": 5786,
  "\u2581adultery": 5787,
  "\u2581fornication": 5788,
  "\u2581method": 5789,
  "\u2581relations": 5790,
  "\u2581reputation": 5791,
  "\u2581telephone": 5792,
  "\u2581DNA": 5793,
  "\u2581maghuhukom": 5794,
  "\u2581property": 5795,
  "\u2581quiet": 5796,
  "\u258110,000": 5797,
  "\u258133:": 5798,
  "\u2581arka": 5799,
  "\u2581mihinapos": 5800,
  "\u2581pagkamatarung": 5801,
  "\u2581provision": 5802,
  "\u2581Trinity": 5803,
  "\u2581aged": 5804,
  "\u2581nagbutang": 5805,
  "\u2581privileges": 5806,
  "\u2581wings": 5807,
  "\u2581agig": 5808,
  "\u2581bawtismado": 5809,
  "\u2581equal": 5810,
  "\u2581nagsilbing": 5811,
  "\u2581nagtan": 5812,
  "\u2581naundan": 5813,
  "\u2581teeth": 5814,
  "\u2581tumanon": 5815,
  "\u2581Service": 5816,
  "\u2581Sweden": 5817,
  "\u2581accident": 5818,
  "\u2581aspect": 5819,
  "\u2581facing": 5820,
  "\u2581poured": 5821,
  "\u2581suggested": 5822,
  "\u2581Bato": 5823,
  "\u2581Bo": 5824,
  "\u2581Second": 5825,
  "\u2581comforting": 5826,
  "\u2581figure": 5827,
  "\u2581grand": 5828,
  "\u2581historian": 5829,
  "\u2581sultihan": 5830,
  "\u258122;": 5831,
  "\u2581Gideon": 5832,
  "\u2581depressed": 5833,
  "\u2581horses": 5834,
  "\u2581ikatingala": 5835,
  "\u2581karera": 5836,
  "\u2581pilosopiya": 5837,
  "ga": 5838,
  "\u258114]": 5839,
  "\u2581dokumento": 5840,
  "\u2581otherwise": 5841,
  "\u2581paghinulsol": 5842,
  "\u2581printed": 5843,
  "\u2581sweet": 5844,
  "ster": 5845,
  "\u2581Post": 5846,
  "\u2581flight": 5847,
  "\u2581malisdan": 5848,
  "\u2581pro": 5849,
  "\u2581Romanhon": 5850,
  "\u2581Tuig": 5851,
  "\u2581Within": 5852,
  "\u2581amot": 5853,
  "\u2581deaths": 5854,
  "\u2581ends": 5855,
  "\u2581injustice": 5856,
  "\u2581pagtul": 5857,
  "\u2581passing": 5858,
  "\u2581supposed": 5859,
  "\u25811930": 5860,
  "\u2581Basahon": 5861,
  "\u2581UG": 5862,
  "\u2581maluya": 5863,
  "\u2581nagpahinabo": 5864,
  "\u2581ngalang": 5865,
  "\u2581pagpadayag": 5866,
  "\u2581pagsanong": 5867,
  "\u2581Truth": 5868,
  "\u2581dughan": 5869,
  "\u2581features": 5870,
  "\u2581fun": 5871,
  "\u2581miracles": 5872,
  "\u2581namati": 5873,
  "\u2581Balita": 5874,
  "\u2581Manila": 5875,
  "\u2581Tunghaan": 5876,
  "\u2581concentration": 5877,
  "\u2581gitumong": 5878,
  "\u2581pagkadungog": 5879,
  "\u2581plague": 5880,
  "\u2581production": 5881,
  "\u2581songs": 5882,
  "\u258166": 5883,
  "\u2581Salomon": 5884,
  "\u2581anti": 5885,
  "\u2581attitudes": 5886,
  "\u2581levels": 5887,
  "\u2581pagpasalamat": 5888,
  "\u2581risgo": 5889,
  "\u2581rulership": 5890,
  "\u2581yawi": 5891,
  "\u2581Esther": 5892,
  "\u2581Sydney": 5893,
  "\u2581Te": 5894,
  "\u2581cattle": 5895,
  "\u2581deaf": 5896,
  "\u2581dulot": 5897,
  "\u2581mianhi": 5898,
  "\u2581mig": 5899,
  "\u2581mopuyo": 5900,
  "\u2581pasikaranan": 5901,
  "\u258152": 5902,
  "\u2581Lunop": 5903,
  "\u2581game": 5904,
  "\u2581kabug": 5905,
  "\u2581lines": 5906,
  "\u2581makaseguro": 5907,
  "\u2581motubag": 5908,
  "\u2581post": 5909,
  "\u2581royal": 5910,
  "\u2581tonelada": 5911,
  "\u2581traffic": 5912,
  "ard": 5913,
  "mas": 5914,
  "sama": 5915,
  "\u2581Kanasoran": 5916,
  "\u2581Micah": 5917,
  "\u2581beat": 5918,
  "\u2581brief": 5919,
  "\u2581location": 5920,
  "\u2581magbuhat": 5921,
  "\u2581visits": 5922,
  "ec": 5923,
  "\u258147": 5924,
  "\u2581Thou": 5925,
  "\u2581creature": 5926,
  "\u2581dying": 5927,
  "\u2581kagubot": 5928,
  "\u2581tumbaga": 5929,
  "lakip": 5930,
  "uli": 5931,
  "\u2581arrested": 5932,
  "\u2581gikusgon": 5933,
  "\u2581kaulohan": 5934,
  "\u2581nangadto": 5935,
  "\u2581pagbag": 5936,
  "\u2581pagpaningkamot": 5937,
  "\u2581spake": 5938,
  "mar": 5939,
  "\u2581120": 5940,
  "\u2581Bata": 5941,
  "\u2581Jeroboam": 5942,
  "\u2581custom": 5943,
  "\u2581eager": 5944,
  "\u2581madanihon": 5945,
  "\u2581manga": 5946,
  "\u2581rendered": 5947,
  "\u2581tests": 5948,
  "\u2581check": 5949,
  "\u2581dignity": 5950,
  "\u2581invisible": 5951,
  "\u2581pamilyahanon": 5952,
  "\u2581tim": 5953,
  "\u2581Upon": 5954,
  "\u2581industry": 5955,
  "\u2581malaglag": 5956,
  "\u2581niyebe": 5957,
  "\u2581previous": 5958,
  "balong": 5959,
  "hinaot": 5960,
  "\u2581Iya": 5961,
  "\u2581basahong": 5962,
  "\u2581buried": 5963,
  "\u2581error": 5964,
  "\u2581influenced": 5965,
  "\u2581kusgan": 5966,
  "\u2581lugas": 5967,
  "\u2581negosyante": 5968,
  "\u2581Suba": 5969,
  "\u2581feature": 5970,
  "\u2581inherit": 5971,
  "\u2581naglingkod": 5972,
  "\u2581pagkabata": 5973,
  "\u2581pagsalikway": 5974,
  "\u2581polusyon": 5975,
  "ES": 5976,
  "\u2581Propesor": 5977,
  "\u2581annual": 5978,
  "\u2581anymore": 5979,
  "\u2581companion": 5980,
  "\u2581elepante": 5981,
  "\u2581kaikag": 5982,
  "\u2581pagdili": 5983,
  "\u2581pollution": 5984,
  "\u2581suggest": 5985,
  "\u2581Gamhanan": 5986,
  "\u2581Gihatag": 5987,
  "\u2581Kaniya": 5988,
  "\u2581bomba": 5989,
  "\u2581burn": 5990,
  "\u2581ilustrar": 5991,
  "\u2581infected": 5992,
  "\u2581spirits": 5993,
  "\u2581Australian": 5994,
  "\u2581Estudyante": 5995,
  "\u2581Sagad": 5996,
  "\u2581approached": 5997,
  "\u2581demonstrated": 5998,
  "\u2581gipamatay": 5999,
  "\u2581guilty": 6000,
  "\u2581higugmaon": 6001,
  "\u2581miabut": 6002,
  "\u2581pagpalandong": 6003,
  "tukmod": 6004,
  "\u2581Catholics": 6005,
  "\u2581naa": 6006,
  "\u2581recall": 6007,
  "\u2581suweldo": 6008,
  "du": 6009,
  "\u2581atan": 6010,
  "\u2581district": 6011,
  "\u2581everywhere": 6012,
  "\u2581hampak": 6013,
  "\u2581matagnaon": 6014,
  "\u2581proud": 6015,
  "\u2581readers": 6016,
  "\u2581resulting": 6017,
  "bar": 6018,
  "\u2581gutom": 6019,
  "\u2581mamumulong": 6020,
  "\u2581noise": 6021,
  "\u2581prisoners": 6022,
  "\u2581shame": 6023,
  "\u2581ships": 6024,
  "\u2581Pi": 6025,
  "\u2581contained": 6026,
  "\u2581journal": 6027,
  "\u2581kalisang": 6028,
  "\u2581parable": 6029,
  "\u2581rebellion": 6030,
  "\u2581testimony": 6031,
  "\u2581Committee": 6032,
  "\u2581brethren": 6033,
  "\u2581hi": 6034,
  "\u2581horse": 6035,
  "\u2581reflected": 6036,
  "\u2581Babilonia": 6037,
  "\u2581citizens": 6038,
  "\u2581ihap": 6039,
  "\u2581naglakaw": 6040,
  "\u2581nagpalig": 6041,
  "\u2581naguol": 6042,
  "\u2581prutas": 6043,
  "\u2581replaced": 6044,
  "au": 6045,
  "hanon": 6046,
  "naga": 6047,
  "\u2581Ikaduha": 6048,
  "\u2581asks": 6049,
  "\u2581famine": 6050,
  "\u2581gathering": 6051,
  "\u2581hawas": 6052,
  "\u2581indefinite": 6053,
  "\u2581laglagon": 6054,
  "\u2581lifted": 6055,
  "\u2581mildness": 6056,
  "\u2581mitindog": 6057,
  "\u2581miuyon": 6058,
  "\u2581nagtukmod": 6059,
  "\u2581obligation": 6060,
  "\u2581pagpalit": 6061,
  "\u2581pagtugot": 6062,
  "\u2581solid": 6063,
  "\u2581Anna": 6064,
  "\u2581Makaiikag": 6065,
  "\u2581lion": 6066,
  "\u2581mipadayon": 6067,
  "\u2581operation": 6068,
  "\u2581pagpakigbahin": 6069,
  "\u2581pagpanganak": 6070,
  "\u2581pula": 6071,
  "\u2581readily": 6072,
  "car": 6073,
  "\u2581Bar": 6074,
  "\u2581daang": 6075,
  "\u2581director": 6076,
  "\u2581discern": 6077,
  "\u2581makabasa": 6078,
  "\u2581midumili": 6079,
  "\u2581seventh": 6080,
  "\u2581victory": 6081,
  "ance": 6082,
  "duol": 6083,
  "\u2581Makatabang": 6084,
  "\u2581Washington": 6085,
  "\u2581Zealand": 6086,
  "\u2581galamiton": 6087,
  "\u2581maikagon": 6088,
  "\u2581repeatedly": 6089,
  "\u2581shed": 6090,
  "\u2581station": 6091,
  "\u2581nganhi": 6092,
  "\u2581opinion": 6093,
  "\u2581pagpasig": 6094,
  "\u2581programs": 6095,
  "\u2581seeds": 6096,
  "\u2581Gitudlo": 6097,
  "\u2581awan": 6098,
  "\u2581kaigsoonan": 6099,
  "\u2581konklusyon": 6100,
  "\u2581tradition": 6101,
  "\u2581Amazon": 6102,
  "\u2581Richard": 6103,
  "\u2581con": 6104,
  "\u2581kahiladman": 6105,
  "\u2581mahulog": 6106,
  "\u2581tugon": 6107,
  "\u2581turista": 6108,
  "nong": 6109,
  "\u2581Shortly": 6110,
  "\u2581Up": 6111,
  "\u2581balod": 6112,
  "\u2581corruption": 6113,
  "\u2581pagpihig": 6114,
  "\u2581theme": 6115,
  "Bisan": 6116,
  "ana": 6117,
  "\u2581blame": 6118,
  "\u2581bugkos": 6119,
  "\u2581kape": 6120,
  "\u2581possessions": 6121,
  "\u2581satisfied": 6122,
  "\u2581theory": 6123,
  "\u258134,": 6124,
  "\u2581aso": 6125,
  "\u2581climate": 6126,
  "\u2581discernment": 6127,
  "\u2581liog": 6128,
  "\u2581mopili": 6129,
  ",000,000": 6130,
  "ated": 6131,
  "\u2581Which": 6132,
  "\u2581childhood": 6133,
  "\u2581distrito": 6134,
  "\u2581height": 6135,
  "\u2581isolated": 6136,
  "\u2581kadagatan": 6137,
  "\u2581turns": 6138,
  "lit": 6139,
  "\u2581Center": 6140,
  "\u2581baryo": 6141,
  "\u2581bentaha": 6142,
  "\u2581doors": 6143,
  "\u2581impeksiyon": 6144,
  "\u2581kaluhaan": 6145,
  "\u2581selfish": 6146,
  "\u2581supported": 6147,
  "\u2581widespread": 6148,
  "lon": 6149,
  "\u2581Dictionary": 6150,
  "\u2581Iningles": 6151,
  "\u2581Levi": 6152,
  "\u2581Simbahan": 6153,
  "\u2581hit": 6154,
  "\u2581nahibulong": 6155,
  "\u2581restore": 6156,
  "ula": 6157,
  "\u258131,": 6158,
  "\u2581Saad": 6159,
  "\u2581armas": 6160,
  "\u2581bakterya": 6161,
  "\u2581writers": 6162,
  "\u2581ginatos": 6163,
  "\u2581hinumdomi": 6164,
  "\u2581magkauban": 6165,
  "\u2581matawo": 6166,
  "\u2581permanent": 6167,
  "\u2581singing": 6168,
  "\u2581sinners": 6169,
  "\u2581temperature": 6170,
  "LE": 6171,
  "pan": 6172,
  "sinunog": 6173,
  "\u2581Miingon": 6174,
  "\u2581adunahan": 6175,
  "\u2581gidisenyo": 6176,
  "\u2581object": 6177,
  "\u2581panaghigalaay": 6178,
  "\u2581Again": 6179,
  "\u2581Ja": 6180,
  "\u2581benepisyo": 6181,
  "\u2581cm": 6182,
  "\u2581limit": 6183,
  "\u2581maniko": 6184,
  "\u2581nangitag": 6185,
  "\u2581pagbayad": 6186,
  "\u2581paying": 6187,
  "\u2581represent": 6188,
  "\u2581Ammon": 6189,
  "\u2581associate": 6190,
  "\u2581differences": 6191,
  "\u2581gained": 6192,
  "\u2581gihabogon": 6193,
  "\u2581ikaingon": 6194,
  "\u2581katin": 6195,
  "\u2581masayran": 6196,
  "\u2581miresulta": 6197,
  "\u2581motivated": 6198,
  "\u2581preserve": 6199,
  "\u2581reasoning": 6200,
  "\u258144.": 6201,
  "\u2581Old": 6202,
  "\u2581commercial": 6203,
  "\u2581corrupt": 6204,
  "\u2581detalyado": 6205,
  "\u2581makahuloganon": 6206,
  "\u2581mobasa": 6207,
  "\u2581silangan": 6208,
  "\u2581spirituality": 6209,
  "\u2581vain": 6210,
  "\u2581BIBLIYA": 6211,
  "\u2581camps": 6212,
  "\u2581feast": 6213,
  "\u2581gama": 6214,
  "\u2581leyon": 6215,
  "\u2581makapatay": 6216,
  "\u2581nalista": 6217,
  "\u2581obispo": 6218,
  "\u2581parke": 6219,
  "rt": 6220,
  "\u2581AWIT": 6221,
  "\u2581Child": 6222,
  "\u2581Maghuhukom": 6223,
  "\u2581SONGS": 6224,
  "\u2581commission": 6225,
  "\u2581matagamtam": 6226,
  "\u2581nakuha": 6227,
  "\u2581prominent": 6228,
  "\u2581qualified": 6229,
  "\u2581tropical": 6230,
  "har": 6231,
  "\u2581Hi": 6232,
  "\u2581admits": 6233,
  "\u2581covering": 6234,
  "\u2581distant": 6235,
  "\u2581fly": 6236,
  "\u2581hatagag": 6237,
  "\u2581nanguna": 6238,
  "\u2581shape": 6239,
  "\u2581sing": 6240,
  "\u2581termino": 6241,
  "ita": 6242,
  "line": 6243,
  "\u2581Mar": 6244,
  "\u2581Ngani": 6245,
  "\u2581Sheol": 6246,
  "\u2581kadaotan": 6247,
  "\u2581marked": 6248,
  "\u2581milyones": 6249,
  "No": 6250,
  "ists": 6251,
  "\u258100": 6252,
  "\u2581dignidad": 6253,
  "\u2581endured": 6254,
  "\u2581kono": 6255,
  "\u2581napugos": 6256,
  "\u2581newly": 6257,
  "\u2581Abi": 6258,
  "\u2581Col": 6259,
  "\u2581Padayon": 6260,
  "\u2581appeal": 6261,
  "\u2581diabetes": 6262,
  "\u2581driving": 6263,
  "\u2581highest": 6264,
  "\u2581kaatbang": 6265,
  "\u2581magmando": 6266,
  "\u2581mamumuo": 6267,
  "\u2581manghod": 6268,
  "\u2581pahinumdom": 6269,
  "\u2581strange": 6270,
  "\u2581visible": 6271,
  "salikway": 6272,
  "\u2581Congregation": 6273,
  "\u2581Faraon": 6274,
  "\u2581Kenya": 6275,
  "\u2581mahalon": 6276,
  "\u2581maminaw": 6277,
  "\u2581purohan": 6278,
  "\u2581tear": 6279,
  "\u2581thereafter": 6280,
  "\u2581tudlo": 6281,
  "\u258156": 6282,
  "\u2581Caesar": 6283,
  "\u2581GOD": 6284,
  "\u2581Italian": 6285,
  "\u2581nagsul": 6286,
  "\u2581nagtugot": 6287,
  "\u2581Elisha": 6288,
  "\u2581Park": 6289,
  "\u2581current": 6290,
  "\u2581extended": 6291,
  "\u2581gihatagag": 6292,
  "\u2581insects": 6293,
  "\u2581kadungganan": 6294,
  "\u2581kg": 6295,
  "\u2581nagbatbat": 6296,
  "ero": 6297,
  "gamit": 6298,
  "\u2581Cesar": 6299,
  "\u2581Cronicas": 6300,
  "\u2581Gal": 6301,
  "\u2581al": 6302,
  "\u2581dulumtanan": 6303,
  "\u2581fundamental": 6304,
  "\u2581greed": 6305,
  "\u2581ikapito": 6306,
  "\u2581kasubo": 6307,
  "\u2581pikas": 6308,
  "\u2581rely": 6309,
  "\u2581seksiyon": 6310,
  "PO": 6311,
  "\u25811940": 6312,
  "\u2581Eliseo": 6313,
  "\u2581Know": 6314,
  "\u2581branches": 6315,
  "\u2581bright": 6316,
  "\u2581civil": 6317,
  "\u2581feeding": 6318,
  "\u2581onto": 6319,
  "ee": 6320,
  "\u2581Halls": 6321,
  "\u2581Three": 6322,
  "\u2581apo": 6323,
  "\u2581depends": 6324,
  "\u2581hide": 6325,
  "\u2581hulga": 6326,
  "\u2581kina": 6327,
  "\u2581milihok": 6328,
  "\u2581moinom": 6329,
  "\u2581nakadiskobre": 6330,
  "\u2581pagwagtang": 6331,
  "\u2581panaad": 6332,
  "\u2581speaker": 6333,
  "\u2581worker": 6334,
  "0": 6335,
  "\u2581Halo": 6336,
  "\u2581Study": 6337,
  "\u2581admitted": 6338,
  "\u2581awto": 6339,
  "\u2581belongs": 6340,
  "\u2581central": 6341,
  "\u2581igahatag": 6342,
  "\u2581magbaton": 6343,
  "\u2581mahigalaon": 6344,
  "\u2581mourning": 6345,
  "\u2581palaaboton": 6346,
  "\u2581parapo": 6347,
  "\u2581sumbong": 6348,
  "ham": 6349,
  "\u2581Flood": 6350,
  "\u2581Hentil": 6351,
  "\u2581Hudiyohanong": 6352,
  "\u2581da": 6353,
  "\u2581demand": 6354,
  "\u2581firstborn": 6355,
  "\u2581paglantaw": 6356,
  "Be": 6357,
  "ally": 6358,
  "\u2581ED": 6359,
  "\u2581TB": 6360,
  "\u2581alert": 6361,
  "\u2581employment": 6362,
  "\u2581goats": 6363,
  "\u2581hukom": 6364,
  "\u2581makapahinabo": 6365,
  "\u2581measures": 6366,
  "\u2581nakaagom": 6367,
  "\u2581pagpangandam": 6368,
  "\u2581spending": 6369,
  "RI": 6370,
  "\u2581Titus": 6371,
  "\u2581changing": 6372,
  "\u2581chapters": 6373,
  "\u2581misanong": 6374,
  "\u2581naglangkob": 6375,
  "\u2581pressures": 6376,
  "\u2581rituwal": 6377,
  "bin": 6378,
  "\u2581Anaa": 6379,
  "\u2581acted": 6380,
  "\u2581bank": 6381,
  "\u2581dog": 6382,
  "\u2581pagkasulti": 6383,
  "\u2581pick": 6384,
  "cy": 6385,
  "\u2581babies": 6386,
  "\u2581basura": 6387,
  "\u2581elemento": 6388,
  "\u2581finds": 6389,
  "\u2581gitaho": 6390,
  "\u2581gun": 6391,
  "\u2581ikapakita": 6392,
  "\u2581nagalihok": 6393,
  "\u2581pasahero": 6394,
  "\u2581temporary": 6395,
  "\u2581throw": 6396,
  "50": 6397,
  "Usa": 6398,
  "\u2581condemned": 6399,
  "\u2581ikasulti": 6400,
  "\u2581kasamok": 6401,
  "\u2581losing": 6402,
  "\u2581mainit": 6403,
  "\u2581pagpahimulos": 6404,
  "\u2581viewpoint": 6405,
  "\u2581FOR": 6406,
  "\u2581Ukraine": 6407,
  "\u2581author": 6408,
  "\u2581elements": 6409,
  "\u2581eskedyul": 6410,
  "\u2581gibatbat": 6411,
  "\u2581hinabang": 6412,
  "\u2581judges": 6413,
  "\u2581ruling": 6414,
  "\u2581square": 6415,
  "\u2581Wall": 6416,
  "\u2581fears": 6417,
  "\u2581ikahatag": 6418,
  "\u2581lingkoranan": 6419,
  "\u2581machine": 6420,
  "\u2581merciful": 6421,
  "\u2581moves": 6422,
  "\u2581nakadayeg": 6423,
  "\u2581pornograpiya": 6424,
  "\u2581prey": 6425,
  "\u2581survived": 6426,
  "sulod": 6427,
  "\u2581Pacific": 6428,
  "\u2581managsama": 6429,
  "\u2581nagbasa": 6430,
  "\u2581producing": 6431,
  "\u2581supplies": 6432,
  "\u2581willingly": 6433,
  "Go": 6434,
  "Moisesnong": 6435,
  "Why": 6436,
  "\u2581Nehemiah": 6437,
  "\u2581gidakop": 6438,
  "\u2581narrow": 6439,
  "\u2581ordered": 6440,
  "ani": 6441,
  "\u2581Following": 6442,
  "\u2581Table": 6443,
  "\u2581Tsina": 6444,
  "\u2581holds": 6445,
  "\u2581meditate": 6446,
  "\u2581pit": 6447,
  "\u2581product": 6448,
  "\u2581protected": 6449,
  "\u2581sungay": 6450,
  "\u2581tapus": 6451,
  "\u2581win": 6452,
  "if": 6453,
  "\u2581Women": 6454,
  "\u2581commonly": 6455,
  "\u2581desert": 6456,
  "\u2581gratitude": 6457,
  "\u2581hamili": 6458,
  "\u2581makadaghan": 6459,
  "\u2581nangandoy": 6460,
  "\u2581native": 6461,
  "\u2581pagpayunir": 6462,
  "\u2581pagtigom": 6463,
  "\u2581sagbot": 6464,
  "\u2581torture": 6465,
  "RA": 6466,
  "ika": 6467,
  "\u2581Eastern": 6468,
  "\u2581Orthodox": 6469,
  "\u2581Po": 6470,
  "\u2581Rahab": 6471,
  "\u2581couldn": 6472,
  "\u2581kapuli": 6473,
  "\u2581nagpahinumdom": 6474,
  "\u2581nahisgotan": 6475,
  "\u2581sell": 6476,
  "\u2581tungatunga": 6477,
  "\u2581AND": 6478,
  "\u2581Butang": 6479,
  "\u2581Heights": 6480,
  "\u2581Passover": 6481,
  "\u2581acting": 6482,
  "\u2581adopted": 6483,
  "\u2581awake": 6484,
  "\u2581gambling": 6485,
  "\u2581mikaylap": 6486,
  "\u2581nangatarongan": 6487,
  "\u2581sources": 6488,
  "\u2581west": 6489,
  "EL": 6490,
  "\u2581Gentiles": 6491,
  "\u2581Ministeryo": 6492,
  "\u2581Zechariah": 6493,
  "\u2581amazing": 6494,
  "\u2581bitter": 6495,
  "\u2581chemical": 6496,
  "\u2581fought": 6497,
  "\u2581gabhiona": 6498,
  "\u2581letra": 6499,
  "\u2581manganak": 6500,
  "\u2581signal": 6501,
  "00": 6502,
  "langkit": 6503,
  "ros": 6504,
  "\u2581Miqueas": 6505,
  "\u2581Palandonga": 6506,
  "\u2581Samson": 6507,
  "\u2581devoted": 6508,
  "\u2581eskuyla": 6509,
  "\u2581exercising": 6510,
  "\u2581kapildihan": 6511,
  "\u2581missing": 6512,
  "\u2581previously": 6513,
  "\u2581sapa": 6514,
  "\u2581villages": 6515,
  "not": 6516,
  "\u2581Gina": 6517,
  "\u2581abilities": 6518,
  "\u2581enjoying": 6519,
  "\u2581hilom": 6520,
  "\u2581pagkadaot": 6521,
  "will": 6522,
  "\u00e3o": 6523,
  "\u258129:": 6524,
  "\u2581Concern": 6525,
  "\u2581Inyo": 6526,
  "\u2581Little": 6527,
  "\u2581capable": 6528,
  "\u2581extra": 6529,
  "\u2581farm": 6530,
  "\u2581happening": 6531,
  "\u2581materials": 6532,
  "\u2581mikomento": 6533,
  "\u2581murder": 6534,
  "\u2581professional": 6535,
  "\u2581staff": 6536,
  "\u2581tabako": 6537,
  "\u2581Early": 6538,
  "\u2581Ho": 6539,
  "\u2581Lisod": 6540,
  "\u2581Portugal": 6541,
  "\u2581Ps": 6542,
  "\u2581abaga": 6543,
  "\u2581dalagita": 6544,
  "\u2581ethnic": 6545,
  "\u2581focused": 6546,
  "\u2581kahangtoran": 6547,
  "\u2581killing": 6548,
  "\u2581nakamatikod": 6549,
  "\u2581officer": 6550,
  "\u2581remembered": 6551,
  "\u2581600": 6552,
  "\u2581ehemplo": 6553,
  "\u2581explanation": 6554,
  "\u2581kanilag": 6555,
  "\u2581shut": 6556,
  "\u2581sustain": 6557,
  "\u2581tolda": 6558,
  "\u2581whereas": 6559,
  "\u2581wisely": 6560,
  "\u2581Age": 6561,
  "\u2581Mapa": 6562,
  "\u2581Nehemias": 6563,
  "\u2581crisis": 6564,
  "\u2581eggs": 6565,
  "\u2581koryente": 6566,
  "\u2581magpasundayag": 6567,
  "\u2581magsusupak": 6568,
  "\u2581makapasubo": 6569,
  "\u2581makapatagbaw": 6570,
  "\u2581pagkatigulang": 6571,
  "\u2581surrounded": 6572,
  "\u2581tema": 6573,
  "\u2581PAG": 6574,
  "\u2581expensive": 6575,
  "\u2581iniquity": 6576,
  "\u2581karaan": 6577,
  "\u2581moralidad": 6578,
  "\u2581outcome": 6579,
  "\u2581pakighilawas": 6580,
  "\u2581remind": 6581,
  "\u2581Andrew": 6582,
  "\u2581agreement": 6583,
  "\u2581ashamed": 6584,
  "\u2581catch": 6585,
  "\u2581income": 6586,
  "\u2581kahimsog": 6587,
  "\u2581magdala": 6588,
  "\u2581mid": 6589,
  "\u2581pusil": 6590,
  "\u2581star": 6591,
  "\u2581thrown": 6592,
  "&": 6593,
  "Keep": 6594,
  "den": 6595,
  "\u2581Makita": 6596,
  "\u2581bukas": 6597,
  "\u2581gitinguha": 6598,
  "\u2581malamposon": 6599,
  "\u2581pagkaulipon": 6600,
  "\u2581torre": 6601,
  "ED": 6602,
  "\u2581Kalipay": 6603,
  "\u2581Much": 6604,
  "\u2581Tito": 6605,
  "\u2581anghel": 6606,
  "\u2581double": 6607,
  "\u2581fleshly": 6608,
  "\u2581loud": 6609,
  "\u2581makusog": 6610,
  "\u2581mobating": 6611,
  "\u2581nakasinati": 6612,
  "\u2581subjection": 6613,
  "\u2581talked": 6614,
  "\u2581welfare": 6615,
  "\u2581worldly": 6616,
  "ath": 6617,
  "\u2581Tibuok": 6618,
  "\u2581Year": 6619,
  "\u2581courageous": 6620,
  "\u2581estrikto": 6621,
  "\u2581foolish": 6622,
  "\u2581naminyo": 6623,
  "\u2581namulong": 6624,
  "dahom": 6625,
  "way": 6626,
  "\u25811939": 6627,
  "\u2581Recall": 6628,
  "\u2581bar": 6629,
  "\u2581colors": 6630,
  "\u2581displayed": 6631,
  "\u2581mapugngan": 6632,
  "\u2581ohan": 6633,
  "\u2581scholar": 6634,
  "\u2581sufficient": 6635,
  "44,": 6636,
  "\u2581instructed": 6637,
  "\u2581malulu": 6638,
  "\u2581mikuha": 6639,
  "\u2581pagdaot": 6640,
  "\u2581paggiya": 6641,
  "\u2581pan": 6642,
  "\u2581primarily": 6643,
  "\u2581repentance": 6644,
  "\u2581tago": 6645,
  "\u2581union": 6646,
  "don": 6647,
  "\u25811960": 6648,
  "\u2581Austria": 6649,
  "\u2581Name": 6650,
  "\u2581garments": 6651,
  "\u2581magtudlo": 6652,
  "\u2581masulbad": 6653,
  "\u2581mogula": 6654,
  "\u2581motugot": 6655,
  "\u2581pagpasakop": 6656,
  "\u2581pilion": 6657,
  "\u2581reap": 6658,
  "atan": 6659,
  "ow": 6660,
  "\u2581$1": 6661,
  "\u2581Per": 6662,
  "\u2581begotten": 6663,
  "\u2581gigugol": 6664,
  "\u2581idols": 6665,
  "\u2581invite": 6666,
  "\u2581jobs": 6667,
  "\u2581leader": 6668,
  "\u2581partner": 6669,
  "\u2581wholesome": 6670,
  "\u2581bolkan": 6671,
  "\u2581emotionally": 6672,
  "\u2581giandam": 6673,
  "\u2581hapon": 6674,
  "\u2581harsh": 6675,
  "\u2581makigbahin": 6676,
  "\u2581mamumuhat": 6677,
  "\u2581nangaging": 6678,
  "\u2581residents": 6679,
  "\u2581stage": 6680,
  "\u2581talaan": 6681,
  "\u2581waves": 6682,
  "Who": 6683,
  "binase": 6684,
  "\u2581Hope": 6685,
  "\u2581difficulty": 6686,
  "\u2581ginoo": 6687,
  "\u2581guilt": 6688,
  "\u2581kinahanglana": 6689,
  "\u2581masuod": 6690,
  "\u2581matulog": 6691,
  "\u2581sub": 6692,
  "\u2581tinago": 6693,
  "\u2581wash": 6694,
  "lum": 6695,
  "\u2581USA": 6696,
  "\u2581extend": 6697,
  "\u2581malimbongon": 6698,
  "\u2581review": 6699,
  "san": 6700,
  "\u2581Pilato": 6701,
  "\u2581Zacarias": 6702,
  "\u2581brotherhood": 6703,
  "\u2581himan": 6704,
  "\u2581mahinumdoman": 6705,
  "\u2581nagapangita": 6706,
  "\u2581nasodnong": 6707,
  "\u2581paglubong": 6708,
  "tik": 6709,
  "und": 6710,
  "\u2581Grand": 6711,
  "\u2581Granted": 6712,
  "\u2581Messianic": 6713,
  "\u2581Posible": 6714,
  "\u2581Promised": 6715,
  "\u2581acknowledge": 6716,
  "\u2581bought": 6717,
  "\u2581gipanag": 6718,
  "\u2581inclined": 6719,
  "\u2581meaningful": 6720,
  "\u2581panagbangi": 6721,
  "\u2581reliable": 6722,
  "ach": 6723,
  "\u2581Water": 6724,
  "\u2581deliverance": 6725,
  "\u2581sides": 6726,
  "To": 6727,
  "kaugmad": 6728,
  "virtually": 6729,
  "\u2581Ehiptohanon": 6730,
  "\u2581Ireland": 6731,
  "\u2581arrangements": 6732,
  "\u2581cure": 6733,
  "\u2581gimahal": 6734,
  "\u2581ignore": 6735,
  "\u2581kasabotan": 6736,
  "\u2581lift": 6737,
  "\u2581mangamatay": 6738,
  "\u2581pasilidad": 6739,
  "\u2581raising": 6740,
  "\u2581sanong": 6741,
  "\u2581t": 6742,
  "pagkamatinumanon": 6743,
  "\u25812003": 6744,
  "\u2581Him": 6745,
  "\u2581Jean": 6746,
  "\u2581Rutherford": 6747,
  "\u2581baho": 6748,
  "\u2581bitin": 6749,
  "\u2581equipment": 6750,
  "\u2581foods": 6751,
  "\u2581headquarters": 6752,
  "\u2581makapahupay": 6753,
  "\u2581sets": 6754,
  "\u2581stands": 6755,
  "\u258153": 6756,
  "\u2581Happy": 6757,
  "\u2581Living": 6758,
  "\u2581Sur": 6759,
  "\u2581arm": 6760,
  "\u2581assignments": 6761,
  "\u2581basi": 6762,
  "\u2581fifth": 6763,
  "\u2581milyonmilyong": 6764,
  "\u2581perish": 6765,
  "\u2581preparing": 6766,
  "\u2581rightly": 6767,
  "\u2581Galilea": 6768,
  "\u2581Interestingly": 6769,
  "\u2581Kanimo": 6770,
  "\u2581Sabbath": 6771,
  "\u2581afflicted": 6772,
  "\u2581asno": 6773,
  "\u2581immune": 6774,
  "\u2581magpasakop": 6775,
  "\u2581magtagad": 6776,
  "\u2581nagalakaw": 6777,
  "\u2581roof": 6778,
  "pos": 6779,
  "\u2581Egyptian": 6780,
  "\u2581Sosyedad": 6781,
  "\u2581Uropanhon": 6782,
  "\u2581faithfulness": 6783,
  "\u2581kadalo": 6784,
  "\u2581mile": 6785,
  "\u2581naugmad": 6786,
  "ib": 6787,
  "\u2581disasters": 6788,
  "\u2581fishing": 6789,
  "\u2581gisunod": 6790,
  "\u2581materyales": 6791,
  "\u2581pagkatapos": 6792,
  "\u2581rare": 6793,
  "\u2581reduced": 6794,
  "asyon": 6795,
  "great": 6796,
  "\u2581Pro": 6797,
  "\u2581encourages": 6798,
  "\u2581flying": 6799,
  "\u2581moanhi": 6800,
  "\u2581niyag": 6801,
  "\u2581pregnant": 6802,
  "kan": 6803,
  "\u25811914.": 6804,
  "\u2581Herald": 6805,
  "\u2581Saulo": 6806,
  "\u2581atabay": 6807,
  "\u2581glass": 6808,
  "\u2581maabot": 6809,
  "\u2581organisar": 6810,
  "\u2581pagduol": 6811,
  "\u2581pagpangawat": 6812,
  "Ikaw": 6813,
  "hay": 6814,
  "\u2581ages": 6815,
  "\u2581dugos": 6816,
  "\u2581maghimog": 6817,
  "\u2581pagbatog": 6818,
  "\u2581pagkaagi": 6819,
  "\u2581returning": 6820,
  "\u2581talks": 6821,
  "pit": 6822,
  "\u25811994,": 6823,
  "\u25812004": 6824,
  "\u2581Hu": 6825,
  "\u2581Pilate": 6826,
  "\u2581capacity": 6827,
  "\u2581eliminate": 6828,
  "\u2581intended": 6829,
  "\u2581legs": 6830,
  "\u2581pagsanta": 6831,
  "\u2581represented": 6832,
  "\u2581sapot": 6833,
  "\u2581traits": 6834,
  "\u2581womb": 6835,
  "\u2581yutaa": 6836,
  "\u2581Far": 6837,
  "\u2581acknowledged": 6838,
  "\u2581contributed": 6839,
  "\u2581finish": 6840,
  "\u2581gahum": 6841,
  "\u2581hell": 6842,
  "\u2581historical": 6843,
  "\u2581igdulungog": 6844,
  "\u2581kadugayan": 6845,
  "\u2581kakahoyan": 6846,
  "\u2581nagapadayon": 6847,
  "\u2581objects": 6848,
  "\u2581pagkasunod": 6849,
  "\u2581produces": 6850,
  "\u2581referring": 6851,
  "\u2581sounds": 6852,
  "\u258111201": 6853,
  "\u2581Har": 6854,
  "\u2581Muslim": 6855,
  "\u2581Ri": 6856,
  "\u2581existed": 6857,
  "\u2581gobernador": 6858,
  "\u2581hinatag": 6859,
  "\u2581hormone": 6860,
  "\u2581ing": 6861,
  "\u2581kombinsido": 6862,
  "\u2581labihan": 6863,
  "\u2581plain": 6864,
  "\u2581slowly": 6865,
  "sentro": 6866,
  "\u2581Scripture": 6867,
  "\u2581Stephen": 6868,
  "\u2581Ubos": 6869,
  "\u2581bottom": 6870,
  "\u2581magwawali": 6871,
  "\u2581modest": 6872,
  "\u2581Sovereign": 6873,
  "\u2581debt": 6874,
  "\u2581hungry": 6875,
  "\u2581reproach": 6876,
  "\u2581strike": 6877,
  "US": 6878,
  "that": 6879,
  "\u2581Berlin": 6880,
  "\u2581Korte": 6881,
  "\u2581Next": 6882,
  "\u2581Viewpoint": 6883,
  "\u2581descendants": 6884,
  "\u2581injury": 6885,
  "\u2581persecuted": 6886,
  "\u2581proteksiyon": 6887,
  "\u2581seat": 6888,
  "\u25811950": 6889,
  "\u2581Sun": 6890,
  "\u2581Use": 6891,
  "\u2581begun": 6892,
  "\u2581farmers": 6893,
  "\u2581gipahibalo": 6894,
  "\u2581kard": 6895,
  "\u2581nakigbahin": 6896,
  "\u2581neck": 6897,
  "\u2581ocean": 6898,
  "\u2581pabrika": 6899,
  "\u2581sexually": 6900,
  "\u2581texts": 6901,
  "\u2581trahedya": 6902,
  "adlaw": 6903,
  "ier": 6904,
  "\u2581Ga": 6905,
  "\u2581description": 6906,
  "\u2581educational": 6907,
  "\u2581en": 6908,
  "\u2581equipped": 6909,
  "\u2581golden": 6910,
  "\u2581kinatumyan": 6911,
  "\u2581misamot": 6912,
  "\u2581nati": 6913,
  "\u2581paggamag": 6914,
  "\u2581pagsugot": 6915,
  "\u2581spoil": 6916,
  "ek": 6917,
  "\u2581Egyptians": 6918,
  "\u2581Ginikanan": 6919,
  "\u2581Middle": 6920,
  "\u2581bungtod": 6921,
  "\u2581campaign": 6922,
  "\u2581cared": 6923,
  "\u2581shortly": 6924,
  "\u2581trak": 6925,
  "sugat": 6926,
  "\u2581AS": 6927,
  "\u2581Galilee": 6928,
  "\u2581abroad": 6929,
  "\u2581karsada": 6930,
  "\u2581opera": 6931,
  "\u2581panultihon": 6932,
  "\u2581pasalig": 6933,
  "\u2581repeated": 6934,
  "\u2581tudloan": 6935,
  "ban": 6936,
  "pu": 6937,
  "\u25811986": 6938,
  "\u2581Soberano": 6939,
  "\u2581Try": 6940,
  "\u2581kagiw": 6941,
  "Kining": 6942,
  "hin": 6943,
  "\u2581Chronicles": 6944,
  "\u2581Vatican": 6945,
  "\u2581accompanied": 6946,
  "\u2581initiative": 6947,
  "\u2581nakit": 6948,
  "\u2581nalisdan": 6949,
  "\u2581necessarily": 6950,
  "\u2581panganay": 6951,
  "\u2581symbol": 6952,
  "ius": 6953,
  "with": 6954,
  "\u2581Ann": 6955,
  "\u2581Doing": 6956,
  "\u2581Je": 6957,
  "\u2581Y": 6958,
  "\u2581breast": 6959,
  "\u2581exchange": 6960,
  "\u2581Isa": 6961,
  "\u2581Show": 6962,
  "\u2581depend": 6963,
  "\u2581hanas": 6964,
  "\u2581magkinahanglan": 6965,
  "\u2581mopatungha": 6966,
  "\u2581press": 6967,
  "\u2581structure": 6968,
  "\u2581survival": 6969,
  "\u2581treasures": 6970,
  "\u25811987": 6971,
  "\u2581assurance": 6972,
  "\u2581continually": 6973,
  "\u2581hilig": 6974,
  "\u2581medyo": 6975,
  "\u2581pasalamat": 6976,
  "\u2581sawang": 6977,
  "\u2581towns": 6978,
  "awon": 6979,
  "sultihan": 6980,
  "\u2581Scientists": 6981,
  "\u2581binuang": 6982,
  "\u2581bisyo": 6983,
  "\u2581cruel": 6984,
  "\u2581desired": 6985,
  "\u2581masundog": 6986,
  "\u2581pagdaghan": 6987,
  "\u2581paglapas": 6988,
  "\u2581repentant": 6989,
  "\u2581smaller": 6990,
  "\u2581ugmaron": 6991,
  "IS": 6992,
  "\u2581Ca": 6993,
  "\u2581Home": 6994,
  "\u2581Kada": 6995,
  "\u2581Pentecost": 6996,
  "\u2581eaten": 6997,
  "\u2581goods": 6998,
  "\u2581inila": 6999,
  "\u2581kinalabwan": 7000,
  "\u2581mabungahon": 7001,
  "\u2581magabii": 7002,
  "\u2581makapabilin": 7003,
  "\u2581naluwas": 7004,
  "\u2581partikular": 7005,
  "\u2581soft": 7006,
  "\u2581storm": 7007,
  "\u2581tensiyon": 7008,
  "\u2581Macedonia": 7009,
  "\u2581fed": 7010,
  "\u2581gamot": 7011,
  "\u2581linked": 7012,
  "\u2581messages": 7013,
  "\u2581milakaw": 7014,
  "ect": 7015,
  "\u2581Ge": 7016,
  "\u2581Tanang": 7017,
  "\u2581Tract": 7018,
  "\u2581afternoon": 7019,
  "\u2581bentana": 7020,
  "\u2581grasp": 7021,
  "\u2581incense": 7022,
  "\u2581records": 7023,
  "\u2581sorts": 7024,
  "\u2581Corinth": 7025,
  "\u2581Ru": 7026,
  "\u2581Ruso": 7027,
  "\u2581discover": 7028,
  "\u2581gilantaw": 7029,
  "\u2581idolo": 7030,
  "\u2581latter": 7031,
  "\u2581nangangkon": 7032,
  "\u2581separated": 7033,
  "\u2581twelve": 7034,
  "\u25811985": 7035,
  "\u2581Islands": 7036,
  "\u2581Manases": 7037,
  "\u2581ekspresyon": 7038,
  "\u2581friendly": 7039,
  "\u2581hapin": 7040,
  "\u2581pagtoo": 7041,
  "\u2581pioneering": 7042,
  "\u2581pornography": 7043,
  "\u2581schedule": 7044,
  "\u2581slavery": 7045,
  "\u2581trusted": 7046,
  "\u2581ulay": 7047,
  "\u2581Himoa": 7048,
  "\u2581Josephus": 7049,
  "\u2581ex": 7050,
  "\u2581fuel": 7051,
  "\u2581mabuntog": 7052,
  "\u2581paghinlo": 7053,
  "\u2581prejudice": 7054,
  "\u2581reperensiya": 7055,
  "fi": 7056,
  "\u2581(3)": 7057,
  "\u2581Street": 7058,
  "\u2581accepting": 7059,
  "\u2581approved": 7060,
  "\u2581bow": 7061,
  "\u2581gana": 7062,
  "\u2581hilit": 7063,
  "\u2581ipahinabo": 7064,
  "\u2581kamingaw": 7065,
  "\u2581magakaon": 7066,
  "\u2581magma": 7067,
  "\u2581panagkatigom": 7068,
  "\u2581silent": 7069,
  "\u2581theocratic": 7070,
  "lag": 7071,
  "\u2581Manasseh": 7072,
  "\u2581atimanon": 7073,
  "\u2581biyaan": 7074,
  "\u2581challenging": 7075,
  "\u2581discouraged": 7076,
  "\u2581dollars": 7077,
  "\u2581giasayn": 7078,
  "\u2581kabakakan": 7079,
  "\u2581kaulawan": 7080,
  "\u2581makahilo": 7081,
  "\u2581makapadayon": 7082,
  "\u2581mapanalipdan": 7083,
  "\u2581moampo": 7084,
  "\u2581periods": 7085,
  "\u2581totally": 7086,
  "\u2581worry": 7087,
  "kay": 7088,
  "\u2581Hospital": 7089,
  "\u2581Marriage": 7090,
  "\u2581flow": 7091,
  "\u2581hatagi": 7092,
  "\u2581load": 7093,
  "\u2581surrounding": 7094,
  "dor": 7095,
  "\u2581Food": 7096,
  "\u2581Page": 7097,
  "\u2581Research": 7098,
  "\u2581Sam": 7099,
  "\u2581aksiyon": 7100,
  "\u2581kuwalipikado": 7101,
  "\u2581mopadayon": 7102,
  "\u2581nahi": 7103,
  "\u2581pagahimoon": 7104,
  "\u2581pagpaambit": 7105,
  "\u2581pagsuportar": 7106,
  "\u2581reply": 7107,
  "\u2581solve": 7108,
  "\u2581teenagers": 7109,
  "\u2581tired": 7110,
  "IT": 7111,
  "his": 7112,
  "ram": 7113,
  "\u2581Caleb": 7114,
  "\u2581Explain": 7115,
  "\u2581Gen": 7116,
  "\u2581Hiniusa": 7117,
  "\u2581Pentekostes": 7118,
  "\u2581differ": 7119,
  "\u2581gates": 7120,
  "\u2581gitun": 7121,
  "\u2581healed": 7122,
  "\u2581makapahimulos": 7123,
  "\u2581motivate": 7124,
  "\u2581planning": 7125,
  "\u2581sang": 7126,
  "\u2581sigarilyo": 7127,
  "\u2581sulugoon": 7128,
  "LAT": 7129,
  "andam": 7130,
  "tas": 7131,
  "\u2581Assembly": 7132,
  "\u2581NI": 7133,
  "\u2581abante": 7134,
  "\u2581ca": 7135,
  "\u2581coffee": 7136,
  "\u2581hayskul": 7137,
  "\u2581transfusions": 7138,
  "Pa": 7139,
  "tag": 7140,
  "ye": 7141,
  "\u2581Con": 7142,
  "\u2581assures": 7143,
  "\u2581calamity": 7144,
  "\u2581commands": 7145,
  "\u2581ensure": 7146,
  "\u2581gamita": 7147,
  "\u2581gibase": 7148,
  "\u2581parehas": 7149,
  "\u2581typical": 7150,
  "Young": 7151,
  "tagamtam": 7152,
  "\u2581Department": 7153,
  "\u2581manununod": 7154,
  "\u2581prangka": 7155,
  "\u2581tested": 7156,
  "laglag": 7157,
  "\u2581Additionally": 7158,
  "\u2581Kaugalingon": 7159,
  "\u2581associates": 7160,
  "\u2581executed": 7161,
  "\u2581hated": 7162,
  "\u2581limitations": 7163,
  "\u2581matinahoron": 7164,
  "\u2581naagoman": 7165,
  "\u2581oxygen": 7166,
  "\u2581pagbuto": 7167,
  "\u2581pagkasayod": 7168,
  "\u2581possibility": 7169,
  "\u2581reads": 7170,
  "\u2581sunog": 7171,
  "ize": 7172,
  "lic": 7173,
  "\u2581captivity": 7174,
  "\u2581ideal": 7175,
  "\u2581imbitasyon": 7176,
  "\u2581intelligent": 7177,
  "\u2581mipauli": 7178,
  "\u2581nagapuyo": 7179,
  "\u2581nagbarog": 7180,
  "\u2581searching": 7181,
  "\u2581sustansiya": 7182,
  "\u2581tul": 7183,
  "\u2581\u2013": 7184,
  "\u258135:": 7185,
  "\u2581Empire": 7186,
  "\u2581Minor": 7187,
  "\u2581Vi": 7188,
  "\u2581Ye": 7189,
  "\u2581dalayegon": 7190,
  "\u2581elsewhere": 7191,
  "\u2581fascinating": 7192,
  "\u2581gisulayan": 7193,
  "\u2581hunger": 7194,
  "\u2581isigkaingon": 7195,
  "\u2581kaugmaran": 7196,
  "\u2581maghulat": 7197,
  "\u2581scripture": 7198,
  "Kinsa": 7199,
  "\u2581Diagram": 7200,
  "\u2581abono": 7201,
  "\u2581estasyon": 7202,
  "\u2581fair": 7203,
  "\u2581flood": 7204,
  "\u2581kaila": 7205,
  "\u2581mahigugma": 7206,
  "\u2581makuyaw": 7207,
  "\u2581mapahitas": 7208,
  "\u2581mapihigon": 7209,
  "\u2581sinagoga": 7210,
  "\u2581stronger": 7211,
  "gikan": 7212,
  "\u25811989,": 7213,
  "\u2581abiabi": 7214,
  "\u2581mistake": 7215,
  "\u2581printing": 7216,
  "\u2581sulti": 7217,
  "nder": 7218,
  "pauswag": 7219,
  "\u2581Master": 7220,
  "\u2581Pang": 7221,
  "\u2581believing": 7222,
  "\u2581favorite": 7223,
  "\u2581maintaining": 7224,
  "\u2581palasyo": 7225,
  "\u2581palm": 7226,
  "\u2581pangandoy": 7227,
  "\u2581proverb": 7228,
  "kin": 7229,
  "\u2581Knorr": 7230,
  "\u2581Mars": 7231,
  "\u2581Welcome": 7232,
  "\u2581bull": 7233,
  "\u2581delighted": 7234,
  "\u2581drawing": 7235,
  "\u2581increasingly": 7236,
  "\u2581informed": 7237,
  "\u2581occurs": 7238,
  "\u2581plenty": 7239,
  "\u2581translations": 7240,
  ">": 7241,
  "pagkamahinalaron": 7242,
  "\u25812005": 7243,
  "\u2581Contents": 7244,
  "\u2581Sch": 7245,
  "\u2581binuhi": 7246,
  "\u2581chronic": 7247,
  "\u2581conflicts": 7248,
  "\u2581depth": 7249,
  "\u2581lamay": 7250,
  "\u2581lo": 7251,
  "\u2581nagsingabot": 7252,
  "\u2581organisado": 7253,
  "\u2581pagkamabination": 7254,
  "\u2581permanenteng": 7255,
  "\u2581rapidly": 7256,
  "\u2581relihiyoso": 7257,
  "cha": 7258,
  "kamapasalamaton": 7259,
  "taka": 7260,
  "\u2581Map": 7261,
  "\u2581Mapasalamaton": 7262,
  "\u2581abandon": 7263,
  "\u2581gipangayo": 7264,
  "\u2581kap": 7265,
  "\u2581lag": 7266,
  "\u2581makontrolar": 7267,
  "\u2581matagbaw": 7268,
  "\u2581satisfy": 7269,
  "\u2581wheat": 7270,
  "IL": 7271,
  "che": 7272,
  "uga": 7273,
  "\u2581Black": 7274,
  "\u2581Simeon": 7275,
  "\u2581achieve": 7276,
  "\u2581asul": 7277,
  "\u2581inosente": 7278,
  "\u2581makasinati": 7279,
  "\u2581matino": 7280,
  "\u2581pagtinguha": 7281,
  "\u2581selebrasyon": 7282,
  "\u2581v": 7283,
  "\u2581gipangita": 7284,
  "\u2581makadiyot": 7285,
  "\u2581nadunggan": 7286,
  "\u2581patukoranan": 7287,
  "\u2581sanctuary": 7288,
  "\u2581sensitive": 7289,
  "\u2581strangers": 7290,
  "\u2581sugar": 7291,
  "\u2581tagbalay": 7292,
  "cc": 7293,
  "\u2581Husto": 7294,
  "\u2581Millions": 7295,
  "\u2581ahensiya": 7296,
  "\u2581balikbalik": 7297,
  "\u2581context": 7298,
  "\u2581dies": 7299,
  "\u2581hilo": 7300,
  "\u2581magtatambag": 7301,
  "\u2581malaglagon": 7302,
  "\u2581ministeryal": 7303,
  "\u2581miraculous": 7304,
  "\u2581rising": 7305,
  "butang": 7306,
  "nan": 7307,
  "\u2581Bug": 7308,
  "\u2581Jew": 7309,
  "\u2581Martin": 7310,
  "\u2581Nakaplagan": 7311,
  "\u2581Poland": 7312,
  "\u2581accord": 7313,
  "\u2581bore": 7314,
  "\u2581dioxide": 7315,
  "\u2581pagpasibo": 7316,
  "\u2581pursuing": 7317,
  "\u2581tempted": 7318,
  "\u2581worst": 7319,
  "\u258154": 7320,
  "\u2581Back": 7321,
  "\u2581Edom": 7322,
  "\u2581Lazaro": 7323,
  "\u2581Tulo": 7324,
  "\u2581entirely": 7325,
  "\u2581fever": 7326,
  "\u2581paglupad": 7327,
  "\u2581prefer": 7328,
  "\u2581preserved": 7329,
  "\u2581rejoicing": 7330,
  "\u2581respected": 7331,
  "\u2581route": 7332,
  "\u2581weigh": 7333,
  "\u2013": 7334,
  "\u258130:": 7335,
  "\u2581Avoid": 7336,
  "\u2581End": 7337,
  "\u2581Kaundan": 7338,
  "\u2581armed": 7339,
  "\u2581clouds": 7340,
  "\u2581illustrations": 7341,
  "\u2581mainampingon": 7342,
  "\u2581preced": 7343,
  "\u2581simboliko": 7344,
  "\u2581thankful": 7345,
  "\u2581unibersidad": 7346,
  "ning": 7347,
  "sayod": 7348,
  "\u2581Dis": 7349,
  "\u2581Duol": 7350,
  "\u2581Paglabay": 7351,
  "\u2581dibuho": 7352,
  "\u2581inches": 7353,
  "\u2581isulat": 7354,
  "\u2581lami": 7355,
  "\u2581ministeri": 7356,
  "\u2581nagplano": 7357,
  "\u2581nagtuman": 7358,
  "\u2581sentence": 7359,
  "\u2581sibsibanan": 7360,
  "\u2581tendency": 7361,
  "\u2581till": 7362,
  "\u2581tupad": 7363,
  "\u2581utanon": 7364,
  "pasabot": 7365,
  "\u2581Elizabeth": 7366,
  "\u2581d": 7367,
  "\u2581moabut": 7368,
  "\u2581mogugol": 7369,
  "\u2581panalapi": 7370,
  "\u2581peers": 7371,
  "\u2581sending": 7372,
  "AD": 7373,
  "pangatarongan": 7374,
  "tes": 7375,
  "\u2581Darwin": 7376,
  "\u2581Unlike": 7377,
  "\u2581garment": 7378,
  "\u2581identity": 7379,
  "\u2581lamian": 7380,
  "\u2581maorag": 7381,
  "\u2581roads": 7382,
  "dy": 7383,
  "put": 7384,
  "\u258112;": 7385,
  "\u2581arrival": 7386,
  "\u2581demands": 7387,
  "\u2581function": 7388,
  "ou": 7389,
  "\u258139.": 7390,
  "\u2581Gayod": 7391,
  "\u2581Pan": 7392,
  "\u2581bantogan": 7393,
  "\u2581conviction": 7394,
  "\u2581exact": 7395,
  "\u2581instruments": 7396,
  "\u2581mahinlo": 7397,
  "\u2581nagtubo": 7398,
  "\u2581pagalaglagon": 7399,
  "\u2581pagpakigsekso": 7400,
  "\u2581palas": 7401,
  "\u2581traditions": 7402,
  "Z": 7403,
  "\u2581Near": 7404,
  "\u2581comment": 7405,
  "\u2581impression": 7406,
  "\u2581kapolisan": 7407,
  "\u2581opisyales": 7408,
  "\u2581pagsukol": 7409,
  "\u2581pagtaganag": 7410,
  "\u2581pasagdan": 7411,
  "\u2581pleasing": 7412,
  "\u2581unahon": 7413,
  "\u2581universal": 7414,
  "\u2581wave": 7415,
  "banaag": 7416,
  "ik": 7417,
  "\u258161": 7418,
  "\u2581Long": 7419,
  "\u2581departed": 7420,
  "\u2581magpaila": 7421,
  "\u2581makaluwas": 7422,
  "\u2581sagubangon": 7423,
  "\u2581sulayan": 7424,
  "ology": 7425,
  "\u25819;": 7426,
  "\u2581Central": 7427,
  "\u2581Sir": 7428,
  "\u2581breath": 7429,
  "\u2581du": 7430,
  "\u2581gitugyan": 7431,
  "\u2581lowly": 7432,
  "\u2581mipili": 7433,
  "\u2581mosangyaw": 7434,
  "\u2581nars": 7435,
  "\u2581pulang": 7436,
  "\u2581ruled": 7437,
  "\u2581subay": 7438,
  "red": 7439,
  "\u2581Paskuwa": 7440,
  "\u2581ban": 7441,
  "\u2581drop": 7442,
  "\u2581genetic": 7443,
  "\u2581handed": 7444,
  "\u2581inherited": 7445,
  "\u2581relate": 7446,
  "bel": 7447,
  "sundog": 7448,
  "\u2581Gu": 7449,
  "\u2581Making": 7450,
  "\u2581Panid": 7451,
  "\u2581Tanan": 7452,
  "\u2581mogawas": 7453,
  "\u2581pagpakiggubat": 7454,
  "\u2581transfusion": 7455,
  "\u2581uso": 7456,
  "\u2581Council": 7457,
  "\u2581KO": 7458,
  "\u2581Karen": 7459,
  "\u2581Lazarus": 7460,
  "\u2581View": 7461,
  "\u2581admonition": 7462,
  "\u2581approaching": 7463,
  "\u2581bacteria": 7464,
  "\u2581dungganon": 7465,
  "\u2581ipon": 7466,
  "\u2581mani": 7467,
  "\u2581nagtindog": 7468,
  "\u2581narekord": 7469,
  "\u2581nasora": 7470,
  "\u2581talagsa": 7471,
  "20": 7472,
  "IA": 7473,
  "format": 7474,
  "\u2581Herod": 7475,
  "\u2581Ur": 7476,
  "\u2581angkon": 7477,
  "\u2581aseite": 7478,
  "\u2581attain": 7479,
  "\u2581atubangon": 7480,
  "\u2581gibaligya": 7481,
  "\u2581hait": 7482,
  "\u2581kahigawad": 7483,
  "\u2581pagpauli": 7484,
  "\u2581pangedaron": 7485,
  "\u2581scattered": 7486,
  "\u2581target": 7487,
  "\u2581teenage": 7488,
  "bul": 7489,
  "\u2581Bay": 7490,
  "\u2581Truly": 7491,
  "\u2581[2": 7492,
  "\u2581accused": 7493,
  "\u2581defense": 7494,
  "\u2581falls": 7495,
  "\u2581hoped": 7496,
  "\u2581humbly": 7497,
  "\u2581mahakogon": 7498,
  "\u2581mainly": 7499,
  "\u2581makapukaw": 7500,
  "\u2581nagasulti": 7501,
  "\u2581sibil": 7502,
  "\u2581yoke": 7503,
  "Your": 7504,
  "\u2581607": 7505,
  "\u2581Amihanan": 7506,
  "\u2581Sanhedrin": 7507,
  "\u2581cease": 7508,
  "\u2581cubits": 7509,
  "\u2581engaged": 7510,
  "\u2581halas": 7511,
  "\u2581heal": 7512,
  "\u2581maaghop": 7513,
  "\u2581nahauna": 7514,
  "\u2581numbered": 7515,
  "\u2581opposed": 7516,
  "\u2581regardless": 7517,
  "time": 7518,
  "\u25812008": 7519,
  "\u2581Protestant": 7520,
  "\u2581Review": 7521,
  "\u2581berde": 7522,
  "\u2581choices": 7523,
  "\u2581damaged": 7524,
  "\u2581deeper": 7525,
  "\u2581forgiving": 7526,
  "\u2581gilista": 7527,
  "\u2581idolatry": 7528,
  "\u2581kinaiyanhon": 7529,
  "\u2581resort": 7530,
  "\u2581somewhat": 7531,
  "\u2581strengthening": 7532,
  "act": 7533,
  "\u2581Bethlehem": 7534,
  "\u2581Britaniko": 7535,
  "\u2581Gad": 7536,
  "\u2581Right": 7537,
  "\u2581attractive": 7538,
  "\u2581hedkuwarter": 7539,
  "\u2581jealousy": 7540,
  "\u2581kinabag": 7541,
  "\u2581miracle": 7542,
  "\u2581sulondan": 7543,
  "\u2581upper": 7544,
  "min": 7545,
  "tz": 7546,
  "\u2581Malachi": 7547,
  "\u2581Morag": 7548,
  "\u2581abilidad": 7549,
  "\u2581board": 7550,
  "\u2581era": 7551,
  "\u2581imperfection": 7552,
  "\u2581kaulaw": 7553,
  "\u2581lovingly": 7554,
  "\u2581pangangkon": 7555,
  "\u2581rescue": 7556,
  "\u2581title": 7557,
  "ker": 7558,
  "lus": 7559,
  "ser": 7560,
  "\u258138.": 7561,
  "\u2581Herodes": 7562,
  "\u2581Nabal": 7563,
  "\u2581acquire": 7564,
  "\u2581benefited": 7565,
  "\u2581immediate": 7566,
  "\u2581makaamgo": 7567,
  "\u2581park": 7568,
  "\u2581profound": 7569,
  "\u2581sakay": 7570,
  "\u2581serpent": 7571,
  "\u2581shoulder": 7572,
  "\u2581spot": 7573,
  "led": 7574,
  "\u2581Kasamtangan": 7575,
  "\u2581Ortodokso": 7576,
  "\u2581Paghimo": 7577,
  "\u2581arca": 7578,
  "\u2581gihukman": 7579,
  "\u2581grows": 7580,
  "\u2581kurso": 7581,
  "\u2581nasulat": 7582,
  "\u2581pino": 7583,
  "\u2581risks": 7584,
  "\u2581scribes": 7585,
  "\u2581teokratikanhon": 7586,
  "\u2581warfare": 7587,
  "\u2581IT": 7588,
  "\u2581Lahi": 7589,
  "\u2581Neither": 7590,
  "\u2581Susan": 7591,
  "\u2581code": 7592,
  "\u2581crown": 7593,
  "\u2581dagku": 7594,
  "\u2581defend": 7595,
  "\u2581enables": 7596,
  "\u2581ginama": 7597,
  "\u2581mokuha": 7598,
  "\u2581nagsimba": 7599,
  "\u2581outlook": 7600,
  "los": 7601,
  "\u2581145": 7602,
  "\u2581Abigail": 7603,
  "\u2581Septuagint": 7604,
  "\u2581discussions": 7605,
  "\u2581glorify": 7606,
  "\u2581konsentrasyon": 7607,
  "\u2581maghuhubad": 7608,
  "\u2581magmalamposon": 7609,
  "\u2581makalahutay": 7610,
  "\u2581mapait": 7611,
  "\u2581molakaw": 7612,
  "\u2581thick": 7613,
  "\u2581ungodly": 7614,
  "ac": 7615,
  "anhi": 7616,
  "\u2581Luther": 7617,
  "\u2581MAGSUSU": 7618,
  "\u2581Researchers": 7619,
  "\u2581cars": 7620,
  "\u2581lapok": 7621,
  "\u2581maglakip": 7622,
  "\u2581paghari": 7623,
  "\u2581pagkakat": 7624,
  "\u2581pagpaminaw": 7625,
  "\u2581rage": 7626,
  "\u2581roots": 7627,
  "hong": 7628,
  "pasundayag": 7629,
  "\u25811943": 7630,
  "\u2581Boaz": 7631,
  "\u2581Columbus": 7632,
  "\u2581TINAM": 7633,
  "\u2581driver": 7634,
  "\u2581gibawtismohan": 7635,
  "\u2581higdaanan": 7636,
  "\u2581philosophy": 7637,
  "\u2581pormal": 7638,
  "\u2581prosperity": 7639,
  "\u2581pun": 7640,
  "pasidungog": 7641,
  "\u2581Hindu": 7642,
  "\u2581Pope": 7643,
  "\u2581Syria": 7644,
  "\u2581Unyon": 7645,
  "\u2581admit": 7646,
  "\u2581examination": 7647,
  "\u2581giant": 7648,
  "\u2581motrabaho": 7649,
  "\u2581perfection": 7650,
  "\u2581por": 7651,
  "\u2581rewarded": 7652,
  "\u2581settled": 7653,
  "\u2581therein": 7654,
  "\u2581unknown": 7655,
  "\u2581weaknesses": 7656,
  "oc": 7657,
  "pon": 7658,
  "\u258136.": 7659,
  "\u2581Hapones": 7660,
  "\u2581Heart": 7661,
  "\u2581Ilabina": 7662,
  "\u2581Lamb": 7663,
  "\u2581Scotland": 7664,
  "\u2581Tabang": 7665,
  "\u2581Things": 7666,
  "\u2581compassionate": 7667,
  "\u2581humankind": 7668,
  "\u2581lainlain": 7669,
  "\u2581nagsaysay": 7670,
  "\u2581pagtandi": 7671,
  "\u2581panalipdan": 7672,
  "\u2581rewarding": 7673,
  "\u2581status": 7674,
  "\u2581Martha": 7675,
  "\u2581feared": 7676,
  "\u2581gilubong": 7677,
  "\u2581increases": 7678,
  "\u2581kontra": 7679,
  "\u2581maglisod": 7680,
  "\u2581misinggit": 7681,
  "\u2581pagpadala": 7682,
  "\u2581pi": 7683,
  "\u2581refreshing": 7684,
  "\u2581tagoangkan": 7685,
  "\u25812010": 7686,
  "\u2581Dali": 7687,
  "\u2581Mom": 7688,
  "\u2581Years": 7689,
  "\u2581announced": 7690,
  "\u2581basa": 7691,
  "\u2581deadly": 7692,
  "\u2581gidumtan": 7693,
  "\u2581madali": 7694,
  "\u2581sapatos": 7695,
  "\u2581volunteers": 7696,
  "buhat": 7697,
  "ens": 7698,
  "ov": 7699,
  "port": 7700,
  "\u25814,000": 7701,
  "\u2581Frank": 7702,
  "\u2581Notice": 7703,
  "\u2581distansiya": 7704,
  "\u2581empire": 7705,
  "\u2581hatag": 7706,
  "\u2581makapaguol": 7707,
  "\u2581nagaka": 7708,
  "\u2581nagkuha": 7709,
  "\u2581nakahukom": 7710,
  "\u2581oppression": 7711,
  "\u2581panumdoman": 7712,
  "\u2581pisi": 7713,
  "\u2581plata": 7714,
  "5,000": 7715,
  "fer": 7716,
  "\u25811918": 7717,
  "\u2581Babylonian": 7718,
  "\u2581Blood": 7719,
  "\u2581Daw": 7720,
  "\u2581accidents": 7721,
  "\u2581clay": 7722,
  "\u2581dinalian": 7723,
  "\u2581fault": 7724,
  "\u2581forgotten": 7725,
  "\u2581linukot": 7726,
  "\u2581makahahadlok": 7727,
  "\u2581pagpakasala": 7728,
  "Mag": 7729,
  "\u00ed": 7730,
  "\u25812011": 7731,
  "\u2581Ester": 7732,
  "\u2581generous": 7733,
  "\u2581kahakog": 7734,
  "\u2581kahimtanga": 7735,
  "\u2581nagauban": 7736,
  "\u2581nahulog": 7737,
  "\u2581napanunod": 7738,
  "\u2581pagpatik": 7739,
  "\u2581substance": 7740,
  "\u2581syndrome": 7741,
  "\u2581unrighteous": 7742,
  "\u2581Ephesus": 7743,
  "\u2581Kaniadto": 7744,
  "\u2581ginagmay": 7745,
  "\u2581globe": 7746,
  "\u2581kalmado": 7747,
  "\u2581magpadala": 7748,
  "\u2581makauulaw": 7749,
  "\u2581masayop": 7750,
  "\u2581naapektohan": 7751,
  "\u2581naghulagway": 7752,
  "\u2581owner": 7753,
  "\u2581paghago": 7754,
  "kamapainubsanon": 7755,
  "padapat": 7756,
  "sul": 7757,
  "tig": 7758,
  "\u2581Medical": 7759,
  "\u2581Modern": 7760,
  "\u2581Museum": 7761,
  "\u2581Need": 7762,
  "\u2581Siberia": 7763,
  "\u2581criminal": 7764,
  "\u2581dumuloong": 7765,
  "\u2581facilities": 7766,
  "\u2581higante": 7767,
  "\u2581igpapahulay": 7768,
  "\u2581makamao": 7769,
  "\u2581modako": 7770,
  "\u2581naghari": 7771,
  "\u2581shaped": 7772,
  "\u2581upbuilding": 7773,
  "\u2581weakness": 7774,
  "ites": 7775,
  "palit": 7776,
  "pro": 7777,
  "\u258137.": 7778,
  "\u2581Meanwhile": 7779,
  "\u2581addressed": 7780,
  "\u2581falling": 7781,
  "\u2581magkahulogan": 7782,
  "\u2581mahulagwayong": 7783,
  "\u2581miduyog": 7784,
  "\u2581nangabot": 7785,
  "\u2581terminong": 7786,
  "\u2581tower": 7787,
  "\u2581tugob": 7788,
  "\u2581upset": 7789,
  "\u25812009": 7790,
  "\u2581Globe": 7791,
  "\u2581ap": 7792,
  "\u2581comfortable": 7793,
  "\u2581dagan": 7794,
  "\u2581judged": 7795,
  "\u2581limits": 7796,
  "\u2581mando": 7797,
  "\u2581pagtamod": 7798,
  "\u2581pilosopo": 7799,
  "\u2581prophesied": 7800,
  "\u2581remote": 7801,
  "\u2581replace": 7802,
  "\u2581surprising": 7803,
  "\u2581urges": 7804,
  "\u2581winds": 7805,
  "ating": 7806,
  "\u2581Hawaii": 7807,
  "\u2581Los": 7808,
  "\u2581hopes": 7809,
  "\u2581kagutom": 7810,
  "\u2581nakigbisog": 7811,
  "\u2581pamulong": 7812,
  "\u2581propaganda": 7813,
  "\u2581tragedy": 7814,
  "rd": 7815,
  "\u2581BA": 7816,
  "\u2581Source": 7817,
  "\u2581Tom": 7818,
  "\u2581emergency": 7819,
  "\u2581kontinente": 7820,
  "\u2581significance": 7821,
  "paingon": 7822,
  "shi": 7823,
  "\u2581Answers": 7824,
  "\u2581Dead": 7825,
  "\u2581Inig": 7826,
  "\u2581Prayer": 7827,
  "\u2581character": 7828,
  "\u2581crops": 7829,
  "\u2581eksperimento": 7830,
  "\u2581figurative": 7831,
  "\u2581gikapoy": 7832,
  "\u2581guided": 7833,
  "\u2581improved": 7834,
  "\u2581mobalhin": 7835,
  "\u2581mopatay": 7836,
  "\u2581patiently": 7837,
  "\u2581sharp": 7838,
  "\u2581sorrow": 7839,
  "\u2581suitable": 7840,
  "Look": 7841,
  "ung": 7842,
  "\u2581Katsila": 7843,
  "\u2581Silas": 7844,
  "\u2581bungol": 7845,
  "\u2581judgments": 7846,
  "\u2581kaakohan": 7847,
  "\u2581realm": 7848,
  "ip": 7849,
  "ningkamot": 7850,
  "\u2581Ten": 7851,
  "\u2581bears": 7852,
  "\u2581broad": 7853,
  "\u2581commented": 7854,
  "\u2581dalangpanan": 7855,
  "\u2581desyerto": 7856,
  "\u2581edisyon": 7857,
  "\u2581guwardiya": 7858,
  "\u2581lest": 7859,
  "\u2581safeguard": 7860,
  "\u2581ubanay": 7861,
  "\u2581\u2014\u2060": 7862,
  "ever": 7863,
  "ger": 7864,
  "ric": 7865,
  "\u2581Last": 7866,
  "\u2581makalikay": 7867,
  "\u2581matubag": 7868,
  "\u2581pagpasiugda": 7869,
  "\u2581pope": 7870,
  "\u2581reminds": 7871,
  "\u2581rooms": 7872,
  "\u2581tipik": 7873,
  "\u2581yugo": 7874,
  "Tungod": 7875,
  "\u2581Everyone": 7876,
  "\u2581[1": 7877,
  "\u2581arrive": 7878,
  "\u2581delegado": 7879,
  "\u2581giantos": 7880,
  "\u2581infection": 7881,
  "\u2581kupon": 7882,
  "\u2581mapuno": 7883,
  "\u2581minute": 7884,
  "\u2581molungtad": 7885,
  "\u2581nagpalihok": 7886,
  "\u2581olive": 7887,
  "\u2581salida": 7888,
  "\u2581shock": 7889,
  "can": 7890,
  "lapas": 7891,
  "\u2581Norte": 7892,
  "\u2581Rom": 7893,
  "\u2581Tokyo": 7894,
  "\u2581amounts": 7895,
  "\u2581ate": 7896,
  "\u2581consist": 7897,
  "\u2581despair": 7898,
  "\u2581edge": 7899,
  "\u2581extraordinary": 7900,
  "\u2581gigutom": 7901,
  "\u2581hospitality": 7902,
  "\u2581ilhon": 7903,
  "\u2581libroha": 7904,
  "\u2581presents": 7905,
  "\u2581siklo": 7906,
  "\u2581teenager": 7907,
  "\u2581thirty": 7908,
  "ex": 7909,
  "\u25811941": 7910,
  "\u25811947": 7911,
  "\u2581Mail": 7912,
  "\u2581Peru": 7913,
  "\u2581baha": 7914,
  "\u2581dis": 7915,
  "\u2581gibug": 7916,
  "\u2581kampanya": 7917,
  "\u2581obvious": 7918,
  "\u2581section": 7919,
  "ft": 7920,
  "\u2581Any": 7921,
  "\u2581Georgia": 7922,
  "\u2581Katawhan": 7923,
  "\u2581Naomi": 7924,
  "\u2581Pasipiko": 7925,
  "\u2581Sakit": 7926,
  "\u2581Sodoma": 7927,
  "\u2581companies": 7928,
  "\u2581crying": 7929,
  "\u2581cultures": 7930,
  "\u2581honey": 7931,
  "\u2581immortal": 7932,
  "\u2581landong": 7933,
  "\u2581pagpangaon": 7934,
  "\u2581similarly": 7935,
  "\u2581thoroughly": 7936,
  "Busa": 7937,
  "anak": 7938,
  "cu": 7939,
  "\u2581KON": 7940,
  "\u2581Paghatag": 7941,
  "\u2581Sunod": 7942,
  "\u2581Were": 7943,
  "\u2581abuno": 7944,
  "\u2581cycle": 7945,
  "\u2581disorders": 7946,
  "\u2581gilaglag": 7947,
  "\u2581mikalagiw": 7948,
  "\u2581pagsaway": 7949,
  "\u2581pakiglabot": 7950,
  "\u2581participate": 7951,
  "\u2581practiced": 7952,
  "Sila": 7953,
  "ming": 7954,
  "putos": 7955,
  "\u2581abogado": 7956,
  "\u2581concept": 7957,
  "\u2581dos": 7958,
  "\u2581hosts": 7959,
  "\u2581marital": 7960,
  "\u2581masukad": 7961,
  "\u2581meek": 7962,
  "\u2581muscles": 7963,
  "\u2581nakapatay": 7964,
  "\u2581paghilak": 7965,
  "\u2581pagpaubos": 7966,
  "\u2581peer": 7967,
  "\u2581stream": 7968,
  "\u2581te": 7969,
  "\u2581washed": 7970,
  "\u2581wearing": 7971,
  "ako": 7972,
  "\u25815,000": 7973,
  "\u2581cool": 7974,
  "\u2581effectively": 7975,
  "\u2581environmental": 7976,
  "\u2581fierce": 7977,
  "\u2581magpatunghag": 7978,
  "\u2581network": 7979,
  "\u2581Hannah": 7980,
  "\u2581Jos\u00e9": 7981,
  "\u2581Natural": 7982,
  "\u2581Sodom": 7983,
  "\u2581adding": 7984,
  "\u2581adjust": 7985,
  "\u2581consumed": 7986,
  "\u2581endless": 7987,
  "\u2581igsoonay": 7988,
  "\u2581illustrated": 7989,
  "\u2581memories": 7990,
  "\u2581shadow": 7991,
  "\u2581urge": 7992,
  "ji": 7993,
  "\u2581Hebron": 7994,
  "\u2581JEHOVAH": 7995,
  "\u2581Nang": 7996,
  "\u2581acid": 7997,
  "\u2581dulaan": 7998,
  "\u2581ikalima": 7999,
  "\u2581imperyo": 8000,
  "\u2581lady": 8001,
  "\u2581minor": 8002,
  "\u2581nagamando": 8003,
  "\u2581oksiheno": 8004,
  "\u2581pagdumili": 8005,
  "\u2581pangibog": 8006,
  "\u2581regalo": 8007,
  "\u2581sole": 8008,
  "pagkamapaubsanon": 8009,
  "timbangtimbang": 8010,
  "\u2581Ngalan": 8011,
  "\u2581Rwanda": 8012,
  "\u2581bride": 8013,
  "\u2581dating": 8014,
  "\u2581gibalhin": 8015,
  "\u2581motives": 8016,
  "\u2581panglimbong": 8017,
  "\u2581proceeded": 8018,
  "\u2581puyo": 8019,
  "\u2581tumat": 8020,
  "\u2581window": 8021,
  "70": 8022,
  "dis": 8023,
  "izing": 8024,
  "sk": 8025,
  "tagbaw": 8026,
  "\u25812483": 8027,
  "\u2581Assyria": 8028,
  "\u2581Athens": 8029,
  "\u2581Canaanhon": 8030,
  "\u2581Close": 8031,
  "\u2581Gibanabana": 8032,
  "\u2581Hain": 8033,
  "\u2581Valley": 8034,
  "\u2581angayan": 8035,
  "\u2581considerable": 8036,
  "\u2581emperador": 8037,
  "\u2581gimandoan": 8038,
  "\u2581gipatungha": 8039,
  "\u2581magsige": 8040,
  "\u2581mina": 8041,
  "\u2581stranger": 8042,
  "lig": 8043,
  "lis": 8044,
  "\u258195": 8045,
  "\u2581Albert": 8046,
  "\u2581Lata": 8047,
  "\u2581dapig": 8048,
  "\u2581extensive": 8049,
  "\u2581fitting": 8050,
  "\u2581infant": 8051,
  "\u2581pagsakripisyo": 8052,
  "\u2581starting": 8053,
  "yn": 8054,
  "\u2581Enoch": 8055,
  "\u2581Mc": 8056,
  "\u2581Pet": 8057,
  "\u2581Sion": 8058,
  "\u2581Z": 8059,
  "\u2581bakakon": 8060,
  "\u2581bersiyon": 8061,
  "\u2581domestic": 8062,
  "\u2581ease": 8063,
  "\u2581flocks": 8064,
  "\u2581kingdoms": 8065,
  "\u2581lawlessness": 8066,
  "\u2581naglisod": 8067,
  "\u2581od": 8068,
  "\u2581pagtapos": 8069,
  "\u2581weekly": 8070,
  "Nag": 8071,
  "\u2581250": 8072,
  "\u2581Mesiyanikong": 8073,
  "\u2581addiction": 8074,
  "\u2581cutting": 8075,
  "\u2581disappointed": 8076,
  "\u2581giuyonan": 8077,
  "\u2581itugyan": 8078,
  "\u2581listeners": 8079,
  "\u2581magtukmod": 8080,
  "\u2581manalipod": 8081,
  "\u2581nagpatunghag": 8082,
  "\u2581pagdapit": 8083,
  "\u2581pagsul": 8084,
  "\u2581riles": 8085,
  "\u2581sites": 8086,
  "\u2581tongues": 8087,
  "\u2581vino": 8088,
  "ions": 8089,
  "may": 8090,
  "sagop": 8091,
  "\u2581Armagedon": 8092,
  "\u2581BE": 8093,
  "\u2581IS": 8094,
  "\u2581Ocean": 8095,
  "\u2581Spiritual": 8096,
  "\u2581destructive": 8097,
  "\u2581distributed": 8098,
  "\u2581dumalayong": 8099,
  "\u2581film": 8100,
  "\u2581isul": 8101,
  "\u2581kangaya": 8102,
  "\u2581kuwadrado": 8103,
  "\u2581modangop": 8104,
  "\u2581pasiuna": 8105,
  "\u2581rebellious": 8106,
  "\u2581sentimetros": 8107,
  "\u2581shine": 8108,
  "\u2581taytayan": 8109,
  "\u2581tingga": 8110,
  "\u2581vessel": 8111,
  "atubang": 8112,
  "ey": 8113,
  "pribilehiyo": 8114,
  "ren": 8115,
  "\u258183": 8116,
  "\u2581Evidently": 8117,
  "\u2581Naaman": 8118,
  "\u2581filling": 8119,
  "\u2581imprisoned": 8120,
  "\u2581kalimtan": 8121,
  "\u2581maglungtad": 8122,
  "\u2581mapamatud": 8123,
  "\u2581misalig": 8124,
  "\u2581nagpahibalo": 8125,
  "are": 8126,
  "lia": 8127,
  "\u2581advanced": 8128,
  "\u2581expectations": 8129,
  "\u2581forty": 8130,
  "\u2581g": 8131,
  "\u2581motuman": 8132,
  "\u2581nagapa": 8133,
  "\u2581paborito": 8134,
  "\u2581politikal": 8135,
  "\u2581prize": 8136,
  "\u2581senses": 8137,
  "\u2581steal": 8138,
  "\u2581taposon": 8139,
  "par": 8140,
  "puyo": 8141,
  "\u2581Higala": 8142,
  "\u2581Luc": 8143,
  "\u2581Rachel": 8144,
  "\u2581asleep": 8145,
  "\u2581expert": 8146,
  "\u2581magpalihok": 8147,
  "\u2581magpanuko": 8148,
  "\u2581makasaranganon": 8149,
  "\u2581mopauli": 8150,
  "\u2581openly": 8151,
  "\u2581pina": 8152,
  "\u2581publicly": 8153,
  "\u2581rarely": 8154,
  "\u2581wasn": 8155,
  "\u2581wrongdoing": 8156,
  "kita": 8157,
  "tandog": 8158,
  "\u2581Draw": 8159,
  "\u2581Pila": 8160,
  "\u2581encounter": 8161,
  "\u2581exciting": 8162,
  "\u2581flower": 8163,
  "\u2581li": 8164,
  "\u2581molekula": 8165,
  "\u2581pagmantala": 8166,
  "\u2581sayaw": 8167,
  "\u2581sensilyo": 8168,
  "\u2581sirkumstansiya": 8169,
  "laom": 8170,
  "\u2581crowds": 8171,
  "\u2581intelihente": 8172,
  "\u2581magdalag": 8173,
  "\u2581nabuhat": 8174,
  "\u2581natulog": 8175,
  "\u2581pagkaylap": 8176,
  "\u2581recommended": 8177,
  "presentar": 8178,
  "\u2581Atenas": 8179,
  "\u2581Denmark": 8180,
  "\u2581Sin": 8181,
  "\u2581combined": 8182,
  "\u2581creating": 8183,
  "\u2581giluwas": 8184,
  "\u2581gisunog": 8185,
  "\u2581grandparents": 8186,
  "\u2581inspiring": 8187,
  "\u2581kabus": 8188,
  "\u2581Hisgotan": 8189,
  "\u2581celebration": 8190,
  "\u2581ilegal": 8191,
  "\u2581makapahingangha": 8192,
  "\u2581miss": 8193,
  "\u2581panalanginan": 8194,
  "\u2581queen": 8195,
  "\u2581tenth": 8196,
  "\u2581wheel": 8197,
  "By": 8198,
  "ju": 8199,
  "lar": 8200,
  "\u2581Afterward": 8201,
  "\u2581Josiah": 8202,
  "\u2581costs": 8203,
  "\u2581discovery": 8204,
  "\u2581dramatic": 8205,
  "\u2581espesyalista": 8206,
  "\u2581gibanhaw": 8207,
  "\u2581gipunting": 8208,
  "\u2581krisis": 8209,
  "\u2581meantime": 8210,
  "\u2581nagbantay": 8211,
  "\u2581opposers": 8212,
  "\u2581pagdahom": 8213,
  "\u2581pagpanukod": 8214,
  "\u2581sudden": 8215,
  "\u2581tigomanan": 8216,
  "ors": 8217,
  "\u2581Canadian": 8218,
  "\u2581Josias": 8219,
  "\u2581Learning": 8220,
  "\u2581Leviticus": 8221,
  "\u2581Part": 8222,
  "\u2581Ya": 8223,
  "\u2581acquainted": 8224,
  "\u2581discussing": 8225,
  "\u2581dropped": 8226,
  "\u2581ikapulo": 8227,
  "\u2581loose": 8228,
  "\u2581midaghan": 8229,
  "\u2581nagpahinabog": 8230,
  "\u2581originally": 8231,
  "\u2581recreation": 8232,
  "\u2581repair": 8233,
  "\u2581repent": 8234,
  "\u2581spreading": 8235,
  "\u2581symbolic": 8236,
  "\u2581Levitico": 8237,
  "\u2581Paglaom": 8238,
  "\u2581alcoholic": 8239,
  "\u2581bantayan": 8240,
  "\u2581hin": 8241,
  "\u2581huwes": 8242,
  "\u2581rapid": 8243,
  "ial": 8244,
  "maayong": 8245,
  "ski": 8246,
  "\u258132]": 8247,
  "\u2581Hong": 8248,
  "\u2581habog": 8249,
  "\u2581hotel": 8250,
  "\u2581lifetime": 8251,
  "\u2581makauban": 8252,
  "\u2581mamumuno": 8253,
  "\u2581nagduhaduha": 8254,
  "\u2581reside": 8255,
  "\u2581salag": 8256,
  "\u2581thin": 8257,
  "law": 8258,
  "was": 8259,
  "\u2581Jan": 8260,
  "\u2581assume": 8261,
  "\u2581detail": 8262,
  "\u2581nagsalikway": 8263,
  "\u2581nanambong": 8264,
  "\u2581pagpahimuot": 8265,
  "\u2581passage": 8266,
  "\u2581permission": 8267,
  "\u2581usbon": 8268,
  "ities": 8269,
  "suportar": 8270,
  "\u2581NY": 8271,
  "\u2581Thailand": 8272,
  "\u2581blow": 8273,
  "\u2581containing": 8274,
  "\u2581execution": 8275,
  "\u2581ho": 8276,
  "\u2581mixed": 8277,
  "\u2581olibo": 8278,
  "\u2581pagtabako": 8279,
  "\u2581prince": 8280,
  "\u2581reigned": 8281,
  "\u2581rutina": 8282,
  "\u2581solar": 8283,
  "\u2581span": 8284,
  "\u2581yellow": 8285,
  "atiman": 8286,
  "\u2581Above": 8287,
  "\u2581application": 8288,
  "\u2581emerhensiya": 8289,
  "\u2581grant": 8290,
  "\u2581librarya": 8291,
  "\u2581lifestyle": 8292,
  "\u2581meals": 8293,
  "ell": 8294,
  "gu": 8295,
  "\u258185": 8296,
  "\u2581Balay": 8297,
  "\u2581Gitawag": 8298,
  "\u2581Maya": 8299,
  "\u2581Mu": 8300,
  "\u2581bildo": 8301,
  "\u2581draws": 8302,
  "\u2581earthquake": 8303,
  "\u2581experiencing": 8304,
  "\u2581fifty": 8305,
  "\u2581gipaluyohan": 8306,
  "\u2581itudlo": 8307,
  "\u2581katloan": 8308,
  "\u2581kayugot": 8309,
  "\u2581largely": 8310,
  "\u2581sinati": 8311,
  "\u2581tersiya": 8312,
  "\u2581wealthy": 8313,
  "\u2581beasts": 8314,
  "\u2581conversations": 8315,
  "\u2581decade": 8316,
  "\u2581konsiderahon": 8317,
  "\u2581lacking": 8318,
  "\u2581mopalit": 8319,
  "\u2581receives": 8320,
  "\u2581rid": 8321,
  "\u2581slain": 8322,
  "\u2581tulomanon": 8323,
  "\u25816,000": 8324,
  "\u2581Bantogan": 8325,
  "\u2581Matuod": 8326,
  "\u2581debate": 8327,
  "\u2581enormous": 8328,
  "\u2581ilong": 8329,
  "\u2581instrument": 8330,
  "\u2581makakuhag": 8331,
  "\u2581pinugos": 8332,
  "\u2581pista": 8333,
  "\u2581presente": 8334,
  "\u2581witnessed": 8335,
  "bukas": 8336,
  "gat": 8337,
  "ium": 8338,
  "nt": 8339,
  "\u258164": 8340,
  "\u2581Ancient": 8341,
  "\u2581Kasingkasing": 8342,
  "\u2581Magtutudlo": 8343,
  "\u2581Ngadtongadto": 8344,
  "\u2581eternity": 8345,
  "\u2581expressing": 8346,
  "\u2581hisgoti": 8347,
  "\u2581kaamgid": 8348,
  "\u2581mius": 8349,
  "\u2581mohukom": 8350,
  "\u2581objective": 8351,
  "\u2581pagpasidungog": 8352,
  "\u2581party": 8353,
  "\u2581seemingly": 8354,
  "\u2581silence": 8355,
  "\u2581tragic": 8356,
  "ai": 8357,
  "\u2581Argentina": 8358,
  "\u2581Daotan": 8359,
  "\u2581THIS": 8360,
  "\u2581banned": 8361,
  "\u2581binuhat": 8362,
  "\u2581continuing": 8363,
  "\u2581cultural": 8364,
  "\u2581gasto": 8365,
  "\u2581initial": 8366,
  "\u2581magtigom": 8367,
  "\u2581nagkadaghan": 8368,
  "\u2581outer": 8369,
  "\u2581pagbadlong": 8370,
  "\u2581sacrificing": 8371,
  "\u2581settle": 8372,
  "\u2581sleeping": 8373,
  "ill": 8374,
  "\u2581Inc": 8375,
  "\u2581Katuyoan": 8376,
  "\u2581Zephaniah": 8377,
  "\u2581choosing": 8378,
  "\u2581corn": 8379,
  "\u2581duty": 8380,
  "\u2581kahingawa": 8381,
  "\u2581kondisyon": 8382,
  "\u2581maintained": 8383,
  "\u2581mapalig": 8384,
  "\u2581misupak": 8385,
  "\u2581normally": 8386,
  "\u2581realistic": 8387,
  "\u2581shield": 8388,
  "\u2581sukwahi": 8389,
  "\u2581buaya": 8390,
  "\u2581curse": 8391,
  "\u2581dragon": 8392,
  "\u2581fewer": 8393,
  "\u2581imprenta": 8394,
  "\u2581kids": 8395,
  "\u2581makakaon": 8396,
  "\u2581makugihon": 8397,
  "\u2581malingaw": 8398,
  "\u2581namely": 8399,
  "\u2581pabilhan": 8400,
  "\u2581paggama": 8401,
  "\u2581paths": 8402,
  "\u2581politics": 8403,
  "\u2581presyon": 8404,
  "\u2581seremonyas": 8405,
  "has": 8406,
  "sulti": 8407,
  "\u2581Ever": 8408,
  "\u2581HOW": 8409,
  "\u2581Kas": 8410,
  "\u2581afford": 8411,
  "\u2581institusyon": 8412,
  "\u2581kilos": 8413,
  "\u2581klasmet": 8414,
  "\u2581kugihan": 8415,
  "\u2581obeying": 8416,
  "\u2581officers": 8417,
  "\u2581oldest": 8418,
  "\u2581pagtanyag": 8419,
  "\u2581pangitaon": 8420,
  "\u2581therapy": 8421,
  "IC": 8422,
  "Kay": 8423,
  "kabat": 8424,
  "pin": 8425,
  "sila": 8426,
  "\u2581Balaam": 8427,
  "\u2581Ezra": 8428,
  "\u2581Gihisgotan": 8429,
  "\u2581Pennsylvania": 8430,
  "\u2581attempts": 8431,
  "\u2581basehanan": 8432,
  "\u2581desirable": 8433,
  "\u2581gidayeg": 8434,
  "\u2581gisusi": 8435,
  "\u2581ikanapulo": 8436,
  "\u2581ikog": 8437,
  "\u2581kabangisan": 8438,
  "\u2581kalan": 8439,
  "\u2581kinulit": 8440,
  "\u2581magnificent": 8441,
  "\u2581malaria": 8442,
  "\u2581mates": 8443,
  "\u2581misugyot": 8444,
  "\u2581nakabato": 8445,
  "\u2581observing": 8446,
  "\u2581safely": 8447,
  "30": 8448,
  "\u2581Lebanon": 8449,
  "\u2581Rock": 8450,
  "\u2581avoided": 8451,
  "\u2581binihag": 8452,
  "\u2581earthquakes": 8453,
  "\u2581festival": 8454,
  "\u2581giayo": 8455,
  "\u2581hill": 8456,
  "\u2581kahingpitan": 8457,
  "\u2581mahanduraw": 8458,
  "\u2581pregnancy": 8459,
  "\u2581sulagma": 8460,
  "\u2581talents": 8461,
  "\u2581teologo": 8462,
  "ado": 8463,
  "kabaton": 8464,
  "\u2581Down": 8465,
  "\u2581Tino": 8466,
  "\u2581Tyndale": 8467,
  "\u2581[3": 8468,
  "\u2581applies": 8469,
  "\u2581coupon": 8470,
  "\u2581declaring": 8471,
  "\u2581dogs": 8472,
  "\u2581earnestly": 8473,
  "\u2581galastohan": 8474,
  "\u2581katuohan": 8475,
  "\u2581komersiyal": 8476,
  "\u2581lebel": 8477,
  "\u2581mangil": 8478,
  "\u2581mu": 8479,
  "\u2581nasakit": 8480,
  "\u2581tools": 8481,
  "din": 8482,
  "\u2581Art": 8483,
  "\u2581Light": 8484,
  "\u2581Mal": 8485,
  "\u2581Reading": 8486,
  "\u2581Tu": 8487,
  "\u2581Victoria": 8488,
  "\u2581bulag": 8489,
  "\u2581captain": 8490,
  "\u2581classes": 8491,
  "\u2581conducting": 8492,
[...]
